{
  "version": "1.0",
  "truncation": null,
  "padding": null,
  "added_tokens": [
    {
      "id": 0,
      "content": "<unk>",
      "single_word": false,
      "lstrip": false,
      "rstrip": false,
      "normalized": false,
      "special": true
    },
    {
      "id": 1,
      "content": "<s>",
      "single_word": false,
      "lstrip": false,
      "rstrip": false,
      "normalized": false,
      "special": true
    },
    {
      "id": 2,
      "content": "</s>",
      "single_word": false,
      "lstrip": false,
      "rstrip": false,
      "normalized": false,
      "special": true
    },
    {
      "id": 3,
      "content": "<pad>",
      "single_word": false,
      "lstrip": false,
      "rstrip": false,
      "normalized": false,
      "special": true
    }
  ],
  "normalizer": {
    "type": "Sequence",
    "normalizers": [
      {
        "type": "Replace",
        "pattern": {
          "String": " "
        },
        "content": "▁"
      }
    ]
  },
  "pre_tokenizer": null,
  "post_processor": {
    "type": "TemplateProcessing",
    "single": [
      {
        "SpecialToken": {
          "id": "<s>",
          "type_id": 0
        }
      },
      {
        "Sequence": {
          "id": "A",
          "type_id": 0
        }
      }
    ],
    "pair": [
      {
        "SpecialToken": {
          "id": "<s>",
          "type_id": 0
        }
      },
      {
        "Sequence": {
          "id": "A",
          "type_id": 0
        }
      },
      {
        "SpecialToken": {
          "id": "<s>",
          "type_id": 1
        }
      },
      {
        "Sequence": {
          "id": "B",
          "type_id": 1
        }
      }
    ],
    "special_tokens": {
      "<s>": {
        "id": "<s>",
        "ids": [
          1
        ],
        "tokens": [
          "<s>"
        ]
      }
    }
  },
  "decoder": {
    "type": "Sequence",
    "decoders": [
      {
        "type": "Replace",
        "pattern": {
          "String": "▁"
        },
        "content": " "
      },
      {
        "type": "ByteFallback"
      },
      {
        "type": "Fuse"
      }
    ]
  },
  "model": {
    "type": "BPE",
    "dropout": null,
    "unk_token": "<unk>",
    "continuing_subword_prefix": null,
    "end_of_word_suffix": null,
    "fuse_unk": true,
    "byte_fallback": true,
    "ignore_merges": false,
    "vocab": {
      "<unk>": 0,
      "<s>": 1,
      "</s>": 2,
      "<pad>": 3,
      "<0x00>": 4,
      "<0x01>": 5,
      "<0x02>": 6,
      "<0x03>": 7,
      "<0x04>": 8,
      "<0x05>": 9,
      "<0x06>": 10,
      "<0x07>": 11,
      "<0x08>": 12,
      "<0x09>": 13,
      "<0x0A>": 14,
      "<0x0B>": 15,
      "<0x0C>": 16,
      "<0x0D>": 17,
      "<0x0E>": 18,
      "<0x0F>": 19,
      "<0x10>": 20,
      "<0x11>": 21,
      "<0x12>": 22,
      "<0x13>": 23,
      "<0x14>": 24,
      "<0x15>": 25,
      "<0x16>": 26,
      "<0x17>": 27,
      "<0x18>": 28,
      "<0x19>": 29,
      "<0x1A>": 30,
      "<0x1B>": 31,
      "<0x1C>": 32,
      "<0x1D>": 33,
      "<0x1E>": 34,
      "<0x1F>": 35,
      "<0x20>": 36,
      "<0x21>": 37,
      "<0x22>": 38,
      "<0x23>": 39,
      "<0x24>": 40,
      "<0x25>": 41,
      "<0x26>": 42,
      "<0x27>": 43,
      "<0x28>": 44,
      "<0x29>": 45,
      "<0x2A>": 46,
      "<0x2B>": 47,
      "<0x2C>": 48,
      "<0x2D>": 49,
      "<0x2E>": 50,
      "<0x2F>": 51,
      "<0x30>": 52,
      "<0x31>": 53,
      "<0x32>": 54,
      "<0x33>": 55,
      "<0x34>": 56,
      "<0x35>": 57,
      "<0x36>": 58,
      "<0x37>": 59,
      "<0x38>": 60,
      "<0x39>": 61,
      "<0x3A>": 62,
      "<0x3B>": 63,
      "<0x3C>": 64,
      "<0x3D>": 65,
      "<0x3E>": 66,
      "<0x3F>": 67,
      "<0x40>": 68,
      "<0x41>": 69,
      "<0x42>": 70,
      "<0x43>": 71,
      "<0x44>": 72,
      "<0x45>": 73,
      "<0x46>": 74,
      "<0x47>": 75,
      "<0x48>": 76,
      "<0x49>": 77,
      "<0x4A>": 78,
      "<0x4B>": 79,
      "<0x4C>": 80,
      "<0x4D>": 81,
      "<0x4E>": 82,
      "<0x4F>": 83,
      "<0x50>": 84,
      "<0x51>": 85,
      "<0x52>": 86,
      "<0x53>": 87,
      "<0x54>": 88,
      "<0x55>": 89,
      "<0x56>": 90,
      "<0x57>": 91,
      "<0x58>": 92,
      "<0x59>": 93,
      "<0x5A>": 94,
      "<0x5B>": 95,
      "<0x5C>": 96,
      "<0x5D>": 97,
      "<0x5E>": 98,
      "<0x5F>": 99,
      "<0x60>": 100,
      "<0x61>": 101,
      "<0x62>": 102,
      "<0x63>": 103,
      "<0x64>": 104,
      "<0x65>": 105,
      "<0x66>": 106,
      "<0x67>": 107,
      "<0x68>": 108,
      "<0x69>": 109,
      "<0x6A>": 110,
      "<0x6B>": 111,
      "<0x6C>": 112,
      "<0x6D>": 113,
      "<0x6E>": 114,
      "<0x6F>": 115,
      "<0x70>": 116,
      "<0x71>": 117,
      "<0x72>": 118,
      "<0x73>": 119,
      "<0x74>": 120,
      "<0x75>": 121,
      "<0x76>": 122,
      "<0x77>": 123,
      "<0x78>": 124,
      "<0x79>": 125,
      "<0x7A>": 126,
      "<0x7B>": 127,
      "<0x7C>": 128,
      "<0x7D>": 129,
      "<0x7E>": 130,
      "<0x7F>": 131,
      "<0x80>": 132,
      "<0x81>": 133,
      "<0x82>": 134,
      "<0x83>": 135,
      "<0x84>": 136,
      "<0x85>": 137,
      "<0x86>": 138,
      "<0x87>": 139,
      "<0x88>": 140,
      "<0x89>": 141,
      "<0x8A>": 142,
      "<0x8B>": 143,
      "<0x8C>": 144,
      "<0x8D>": 145,
      "<0x8E>": 146,
      "<0x8F>": 147,
      "<0x90>": 148,
      "<0x91>": 149,
      "<0x92>": 150,
      "<0x93>": 151,
      "<0x94>": 152,
      "<0x95>": 153,
      "<0x96>": 154,
      "<0x97>": 155,
      "<0x98>": 156,
      "<0x99>": 157,
      "<0x9A>": 158,
      "<0x9B>": 159,
      "<0x9C>": 160,
      "<0x9D>": 161,
      "<0x9E>": 162,
      "<0x9F>": 163,
      "<0xA0>": 164,
      "<0xA1>": 165,
      "<0xA2>": 166,
      "<0xA3>": 167,
      "<0xA4>": 168,
      "<0xA5>": 169,
      "<0xA6>": 170,
      "<0xA7>": 171,
      "<0xA8>": 172,
      "<0xA9>": 173,
      "<0xAA>": 174,
      "<0xAB>": 175,
      "<0xAC>": 176,
      "<0xAD>": 177,
      "<0xAE>": 178,
      "<0xAF>": 179,
      "<0xB0>": 180,
      "<0xB1>": 181,
      "<0xB2>": 182,
      "<0xB3>": 183,
      "<0xB4>": 184,
      "<0xB5>": 185,
      "<0xB6>": 186,
      "<0xB7>": 187,
      "<0xB8>": 188,
      "<0xB9>": 189,
      "<0xBA>": 190,
      "<0xBB>": 191,
      "<0xBC>": 192,
      "<0xBD>": 193,
      "<0xBE>": 194,
      "<0xBF>": 195,
      "<0xC0>": 196,
      "<0xC1>": 197,
      "<0xC2>": 198,
      "<0xC3>": 199,
      "<0xC4>": 200,
      "<0xC5>": 201,
      "<0xC6>": 202,
      "<0xC7>": 203,
      "<0xC8>": 204,
      "<0xC9>": 205,
      "<0xCA>": 206,
      "<0xCB>": 207,
      "<0xCC>": 208,
      "<0xCD>": 209,
      "<0xCE>": 210,
      "<0xCF>": 211,
      "<0xD0>": 212,
      "<0xD1>": 213,
      "<0xD2>": 214,
      "<0xD3>": 215,
      "<0xD4>": 216,
      "<0xD5>": 217,
      "<0xD6>": 218,
      "<0xD7>": 219,
      "<0xD8>": 220,
      "<0xD9>": 221,
      "<0xDA>": 222,
      "<0xDB>": 223,
      "<0xDC>": 224,
      "<0xDD>": 225,
      "<0xDE>": 226,
      "<0xDF>": 227,
      "<0xE0>": 228,
      "<0xE1>": 229,
      "<0xE2>": 230,
      "<0xE3>": 231,
      "<0xE4>": 232,
      "<0xE5>": 233,
      "<0xE6>": 234,
      "<0xE7>": 235,
      "<0xE8>": 236,
      "<0xE9>": 237,
      "<0xEA>": 238,
      "<0xEB>": 239,
      "<0xEC>": 240,
      "<0xED>": 241,
      "<0xEE>": 242,
      "<0xEF>": 243,
      "<0xF0>": 244,
      "<0xF1>": 245,
      "<0xF2>": 246,
      "<0xF3>": 247,
      "<0xF4>": 248,
      "<0xF5>": 249,
      "<0xF6>": 250,
      "<0xF7>": 251,
      "<0xF8>": 252,
      "<0xF9>": 253,
      "<0xFA>": 254,
      "<0xFB>": 255,
      "<0xFC>": 256,
      "<0xFD>": 257,
      "<0xFE>": 258,
      "<0xFF>": 259,
      "▁t": 260,
      "he": 261,
      "▁a": 262,
      "ou": 263,
      "▁s": 264,
      "▁m": 265,
      "▁w": 266,
      "in": 267,
      "re": 268,
      "ha": 269,
      "▁the": 270,
      "nd": 271,
      "▁b": 272,
      "is": 273,
      "or": 274,
      "▁f": 275,
      "▁I": 276,
      "er": 277,
      "ll": 278,
      "it": 279,
      "on": 280,
      "▁d": 281,
      "▁c": 282,
      "▁n": 283,
      "▁l": 284,
      "▁y": 285,
      "es": 286,
      "en": 287,
      "▁th": 288,
      "ar": 289,
      "▁h": 290,
      "▁o": 291,
      "▁to": 292,
      "▁you": 293,
      "▁p": 294,
      "▁T": 295,
      "hat": 296,
      "▁A": 297,
      "▁he": 298,
      "st": 299,
      "ve": 300,
      "ot": 301,
      "▁and": 302,
      "ow": 303,
      "ing": 304,
      "▁of": 305,
      "an": 306,
      "om": 307,
      "▁g": 308,
      "at": 309,
      "▁be": 310,
      "▁W": 311,
      "se": 312,
      "▁my": 313,
      "▁in": 314,
      "▁ha": 315,
      "ce": 316,
      "le": 317,
      "ay": 318,
      "ld": 319,
      "ir": 320,
      "et": 321,
      "ed": 322,
      "ut": 323,
      "▁B": 324,
      "▁me": 325,
      "im": 326,
      "▁S": 327,
      "ith": 328,
      "▁not": 329,
      "▁H": 330,
      "ch": 331,
      "▁that": 332,
      "▁is": 333,
      "▁M": 334,
      "gh": 335,
      "▁And": 336,
      "▁for": 337,
      "▁u": 338,
      "ke": 339,
      "▁C": 340,
      "▁we": 341,
      "our": 342,
      "oo": 343,
      "ill": 344,
      "▁e": 345,
      "▁with": 346,
      "her": 347,
      "▁it": 348,
      "ent": 349,
      "▁your": 350,
      "ad": 351,
      "ri": 352,
      "▁O": 353,
      "▁thou": 354,
      "▁st": 355,
      "▁k": 356,
      "▁L": 357,
      "ome": 358,
      "▁his": 359,
      "▁F": 360,
      "▁G": 361,
      "ght": 362,
      "EN": 363,
      "ord": 364,
      "▁re": 365,
      "id": 366,
      "ra": 367,
      "▁The": 368,
      "▁have": 369,
      "▁him": 370,
      "IN": 371,
      "ly": 372,
      "▁li": 373,
      "as": 374,
      "▁P": 375,
      "▁this": 376,
      "ur": 377,
      "IO": 378,
      "al": 379,
      "▁so": 380,
      "▁as": 381,
      "▁de": 382,
      "▁on": 383,
      "▁R": 384,
      "ore": 385,
      "ro": 386,
      "▁N": 387,
      "hi": 388,
      "ould": 389,
      "ood": 390,
      "AR": 391,
      "ck": 392,
      "ain": 393,
      "ver": 394,
      "▁Y": 395,
      "est": 396,
      "▁sha": 397,
      "▁thy": 398,
      "ess": 399,
      "▁will": 400,
      "▁do": 401,
      "ea": 402,
      "▁no": 403,
      "am": 404,
      "▁E": 405,
      "▁but": 406,
      "▁D": 407,
      "us": 408,
      "▁se": 409,
      "US": 410,
      "if": 411,
      "▁'": 412,
      "ge": 413,
      "▁all": 414,
      "and": 415,
      "▁Th": 416,
      "▁su": 417,
      "ake": 418,
      "▁To": 419,
      "▁her": 420,
      "ru": 421,
      "ion": 422,
      "▁an": 423,
      "▁K": 424,
      "▁lo": 425,
      "ard": 426,
      "ter": 427,
      "han": 428,
      "▁sp": 429,
      "ell": 430,
      "ear": 431,
      "▁thee": 432,
      "▁fa": 433,
      "▁shall": 434,
      "▁our": 435,
      "▁by": 436,
      "th": 437,
      "UC": 438,
      "▁are": 439,
      "il": 440,
      "ING": 441,
      "▁ne": 442,
      "▁kn": 443,
      "rom": 444,
      "ho": 445,
      "▁v": 446,
      "▁That": 447,
      "ER": 448,
      "OR": 449,
      "ast": 450,
      "ct": 451,
      "ous": 452,
      "▁what": 453,
      "▁sh": 454,
      "ight": 455,
      "ul": 456,
      "ET": 457,
      "ant": 458,
      "▁up": 459,
      "sel": 460,
      "▁good": 461,
      "qu": 462,
      "▁But": 463,
      "art": 464,
      "row": 465,
      "ath": 466,
      "ine": 467,
      "▁com": 468,
      "▁mu": 469,
      "▁lord": 470,
      "hich": 471,
      "nt": 472,
      "▁pr": 473,
      "▁man": 474,
      "▁at": 475,
      "▁V": 476,
      "one": 477,
      "▁whe": 478,
      "▁con": 479,
      "▁What": 480,
      "▁am": 481,
      "end": 482,
      "ic": 483,
      "ES": 484,
      "ble": 485,
      "ry": 486,
      "ong": 487,
      "▁from": 488,
      "ie": 489,
      "▁she": 490,
      "▁bl": 491,
      "ive": 492,
      "ven": 493,
      "▁go": 494,
      "▁For": 495,
      "▁more": 496,
      "▁them": 497,
      "em": 498,
      "▁was": 499,
      "IC": 500,
      "out": 501,
      "au": 502,
      "▁sir": 503,
      "other": 504,
      "are": 505,
      "oth": 506,
      "ol": 507,
      "▁if": 508,
      "▁He": 509,
      "▁now": 510,
      "▁hat": 511,
      "▁there": 512,
      "▁would": 513,
      "AN": 514,
      "ost": 515,
      "▁know": 516,
      "▁can": 517,
      "LO": 518,
      "ind": 519,
      "ers": 520,
      "IUS": 521,
      "ep": 522,
      "self": 523,
      "ARD": 524,
      "▁say": 525,
      "▁KING": 526,
      "ather": 527,
      "ond": 528,
      "ate": 529,
      "res": 530,
      "fe": 531,
      "▁sw": 532,
      "▁here": 533,
      "▁love": 534,
      "▁their": 535,
      "▁My": 536,
      "▁or": 537,
      "▁than": 538,
      "▁br": 539,
      "pp": 540,
      "--": 541,
      "▁us": 542,
      "▁king": 543,
      "▁they": 544,
      "▁then": 545,
      "all": 546,
      "▁ar": 547,
      "od": 548,
      "▁let": 549,
      "▁un": 550,
      "ig": 551,
      "▁wor": 552,
      "ure": 553,
      "ink": 554,
      "▁may": 555,
      "hy": 556,
      "ame": 557,
      "▁come": 558,
      "fore": 559,
      "ort": 560,
      "▁As": 561,
      "▁qu": 562,
      "ook": 563,
      "▁well": 564,
      "el": 565,
      "ish": 566,
      "LI": 567,
      "▁Whe": 568,
      "▁j": 569,
      "KE": 570,
      "ves": 571,
      "▁one": 572,
      "▁hath": 573,
      "irst": 574,
      "▁make": 575,
      "▁You": 576,
      "▁gra": 577,
      "reat": 578,
      "ak": 579,
      "ng": 580,
      "▁must": 581,
      "gain": 582,
      "ound": 583,
      "▁were": 584,
      "▁ho": 585,
      "▁see": 586,
      "▁should": 587,
      "▁like": 588,
      "ci": 589,
      "▁pro": 590,
      "ue": 591,
      "eak": 592,
      "TIO": 593,
      "▁sa": 594,
      "ity": 595,
      "▁pl": 596,
      "▁mad": 597,
      "▁father": 598,
      "▁had": 599,
      "um": 600,
      "▁did": 601,
      "▁upon": 602,
      "OM": 603,
      "ime": 604,
      "pe": 605,
      "▁too": 606,
      "ice": 607,
      "ON": 608,
      "▁J": 609,
      "▁dis": 610,
      "ence": 611,
      "▁death": 612,
      "ward": 613,
      "▁which": 614,
      "▁en": 615,
      "▁If": 616,
      "ose": 617,
      "own": 618,
      "▁speak": 619,
      "▁po": 620,
      "▁when": 621,
      "ful": 622,
      "▁out": 623,
      "▁fri": 624,
      "▁how": 625,
      "entle": 626,
      "io": 627,
      "pt": 628,
      "un": 629,
      "ICH": 630,
      "▁again": 631,
      "▁RICH": 632,
      "▁tru": 633,
      "OL": 634,
      "de": 635,
      "UKE": 636,
      "▁DUKE": 637,
      "man": 638,
      "▁heart": 639,
      "▁yet": 640,
      "ick": 641,
      "▁hand": 642,
      "very": 643,
      "▁With": 644,
      "▁RICHARD": 645,
      "▁who": 646,
      "ENTIO": 647,
      "▁Thou": 648,
      "ign": 649,
      "▁We": 650,
      "▁some": 651,
      "ance": 652,
      "▁Which": 653,
      "▁hon": 654,
      "▁mar": 655,
      "nce": 656,
      "▁r": 657,
      "ies": 658,
      "▁In": 659,
      "▁son": 660,
      "ire": 661,
      "▁off": 662,
      "▁mine": 663,
      "ist": 664,
      "INC": 665,
      "▁al": 666,
      "ince": 667,
      "har": 668,
      "orn": 669,
      "ack": 670,
      "▁Why": 671,
      "wn": 672,
      "▁Of": 673,
      "▁God": 674,
      "EL": 675,
      "▁hea": 676,
      "▁such": 677,
      "▁time": 678,
      "oy": 679,
      "▁First": 680,
      "▁hear": 681,
      "▁So": 682,
      "ness": 683,
      "▁brother": 684,
      "ec": 685,
      "▁these": 686,
      "▁Cl": 687,
      "▁blood": 688,
      "▁ab": 689,
      "▁ex": 690,
      "ither": 691,
      "▁give": 692,
      "UE": 693,
      "▁fo": 694,
      "▁Is": 695,
      "▁No": 696,
      "▁day": 697,
      "▁ear": 698,
      "▁ro": 699,
      "▁look": 700,
      "▁think": 701,
      "▁II": 702,
      "▁How": 703,
      "▁life": 704,
      "▁tell": 705,
      "EST": 706,
      "ise": 707,
      "▁ey": 708,
      "AB": 709,
      "eet": 710,
      "▁where": 711,
      "UCH": 712,
      "▁take": 713,
      "▁word": 714,
      "oul": 715,
      "▁friend": 716,
      "▁Q": 717,
      "ther": 718,
      "▁This": 719,
      "ag": 720,
      "age": 721,
      "LOUC": 722,
      "▁des": 723,
      "ESTER": 724,
      "▁GLOUC": 725,
      "▁GLOUCESTER": 726,
      "ef": 727,
      "een": 728,
      "erv": 729,
      "▁Come": 730,
      "ady": 731,
      "ust": 732,
      "rown": 733,
      "▁gentle": 734,
      "ings": 735,
      "▁Lord": 736,
      "▁U": 737,
      "▁ri": 738,
      "urse": 739,
      "ave": 740,
      "RY": 741,
      "ase": 742,
      "▁Rome": 743,
      "tis": 744,
      "UEEN": 745,
      "▁art": 746,
      "▁lea": 747,
      "▁VINC": 748,
      "▁QUEEN": 749,
      "▁VINCENTIO": 750,
      "way": 751,
      "▁OF": 752,
      "▁war": 753,
      "▁most": 754,
      "▁honour": 755,
      "▁fl": 756,
      "▁Mar": 757,
      "▁much": 758,
      "UM": 759,
      "LAN": 760,
      "▁sl": 761,
      "▁Where": 762,
      "AM": 763,
      "urn": 764,
      "▁made": 765,
      "▁tw": 766,
      "ment": 767,
      "▁fear": 768,
      "▁hast": 769,
      "▁Now": 770,
      "▁Who": 771,
      "▁bet": 772,
      "ENRY": 773,
      "aught": 774,
      "▁HENRY": 775,
      "▁cou": 776,
      "▁great": 777,
      "▁Be": 778,
      "ber": 779,
      "not": 780,
      "▁bre": 781,
      "ved": 782,
      "▁never": 783,
      "▁new": 784,
      "▁fair": 785,
      "cc": 786,
      "ee": 787,
      "ss": 788,
      "▁af": 789,
      "ower": 790,
      "ap": 791,
      "igh": 792,
      "▁AN": 793,
      "▁men": 794,
      "itt": 795,
      "aster": 796,
      "orrow": 797,
      "▁Your": 798,
      "uke": 799,
      "▁It": 800,
      "iz": 801,
      "ough": 802,
      "ORK": 803,
      "▁YORK": 804,
      "▁any": 805,
      "▁call": 806,
      "▁part": 807,
      "▁Or": 808,
      "▁ra": 809,
      "ation": 810,
      "INIUS": 811,
      "ST": 812,
      "ide": 813,
      "ree": 814,
      "▁ad": 815,
      "▁comm": 816,
      "▁cannot": 817,
      "▁pre": 818,
      "▁true": 819,
      "▁stand": 820,
      "▁heaven": 821,
      "▁PET": 822,
      "▁name": 823,
      "AU": 824,
      "▁been": 825,
      "▁pray": 826,
      "old": 827,
      "▁cl": 828,
      "hing": 829,
      "▁sweet": 830,
      "DW": 831,
      "▁EDW": 832,
      "▁per": 833,
      "▁ple": 834,
      "▁EDWARD": 835,
      "ple": 836,
      "▁GR": 837,
      ",--": 838,
      "▁doth": 839,
      "▁noble": 840,
      "▁wr": 841,
      "ears": 842,
      "▁own": 843,
      "▁LUC": 844,
      "ouse": 845,
      "▁done": 846,
      "▁There": 847,
      "ull": 848,
      "▁tr": 849,
      "▁way": 850,
      "ife": 851,
      "▁head": 852,
      "▁other": 853,
      "RO": 854,
      "aw": 855,
      "▁mean": 856,
      "▁pres": 857,
      "UT": 858,
      "▁Ed": 859,
      "▁bear": 860,
      "red": 861,
      "▁sc": 862,
      "▁nor": 863,
      "AP": 864,
      "EO": 865,
      "▁Ay": 866,
      "OMEO": 867,
      "▁When": 868,
      "▁soul": 869,
      "▁very": 870,
      "▁ROMEO": 871,
      "▁Edward": 872,
      "ass": 873,
      "▁An": 874,
      "ENEN": 875,
      "aint": 876,
      "ving": 877,
      "▁both": 878,
      "▁MENEN": 879,
      "▁night": 880,
      "▁world": 881,
      "▁before": 882,
      "▁MENENIUS": 883,
      "ace": 884,
      "ger": 885,
      "▁By": 886,
      "ause": 887,
      "▁queen": 888,
      "li": 889,
      "▁Let": 890,
      "TH": 891,
      "▁mo": 892,
      "▁chi": 893,
      "aughter": 894,
      "RUCH": 895,
      "▁Here": 896,
      "▁Then": 897,
      "RUCHIO": 898,
      "▁PETRUCHIO": 899,
      "able": 900,
      "▁cont": 901,
      "▁dead": 902,
      "▁down": 903,
      "TES": 904,
      "▁app": 905,
      "ite": 906,
      "▁wh": 907,
      "▁ke": 908,
      "▁rem": 909,
      "▁being": 910,
      "per": 911,
      "▁myself": 912,
      "ab": 913,
      "les": 914,
      "▁MAR": 915,
      "▁Than": 916,
      "▁arm": 917,
      "▁beg": 918,
      "ilt": 919,
      "ORIO": 920,
      "LANUS": 921,
      "▁thus": 922,
      "▁CORIO": 923,
      "▁leave": 924,
      "▁CORIOLANUS": 925,
      "▁Sec": 926,
      "▁grace": 927,
      "▁Second": 928,
      "▁unt": 929,
      "ction": 930,
      "ress": 931,
      "▁Nor": 932,
      "▁eyes": 933,
      "▁LE": 934,
      "▁im": 935,
      "▁mother": 936,
      "led": 937,
      "▁ma": 938,
      "less": 939,
      "▁old": 940,
      "ran": 941,
      "land": 942,
      "INA": 943,
      "▁rep": 944,
      "itiz": 945,
      "▁ever": 946,
      "itizen": 947,
      "lo": 948,
      "ps": 949,
      "sw": 950,
      "▁She": 951,
      "▁int": 952,
      "▁live": 953,
      "▁long": 954,
      "▁wife": 955,
      "▁child": 956,
      "▁wom": 957,
      "▁poor": 958,
      "▁friends": 959,
      "▁III": 960,
      "▁away": 961,
      "▁cons": 962,
      "▁Go": 963,
      "▁might": 964,
      "eace": 965,
      "ford": 966,
      "nder": 967,
      "▁Sir": 968,
      "▁die": 969,
      "▁stay": 970,
      "▁comes": 971,
      "ks": 972,
      "oud": 973,
      "atch": 974,
      "wick": 975,
      "▁War": 976,
      "▁many": 977,
      "▁ru": 978,
      "▁rest": 979,
      "▁house": 980,
      "▁pe": 981,
      "▁crown": 982,
      "▁Warwick": 983,
      "ff": 984,
      "ows": 985,
      "▁le": 986,
      "▁cour": 987,
      "Tis": 988,
      "come": 989,
      "ison": 990,
      "▁His": 991,
      "▁ent": 992,
      "▁har": 993,
      "▁thought": 994,
      "LA": 995,
      "SAB": 996,
      "ELLA": 997,
      "▁lie": 998,
      "▁ISAB": 999,
      "▁ISABELLA": 1000,
      "erc": 1001,
      "ian": 1002,
      "iss": 1003,
      "uck": 1004,
      "RAN": 1005,
      "▁set": 1006,
      "▁daughter": 1007,
      "che": 1008,
      "▁Well": 1009,
      "▁Romeo": 1010,
      "▁nothing": 1011,
      "ULI": 1012,
      "ors": 1013,
      "ONTES": 1014,
      "ULIET": 1015,
      "atter": 1016,
      "▁tong": 1017,
      "▁JULIET": 1018,
      "▁better": 1019,
      "▁LEONTES": 1020,
      "▁St": 1021,
      "▁VI": 1022,
      "▁Nay": 1023,
      "ittle": 1024,
      "▁gone": 1025,
      "▁prince": 1026,
      "rant": 1027,
      "AD": 1028,
      "ADY": 1029,
      "int": 1030,
      "ought": 1031,
      "▁LADY": 1032,
      "AL": 1033,
      "CE": 1034,
      "me": 1035,
      "ENCE": 1036,
      "well": 1037,
      "▁tri": 1038,
      "ied": 1039,
      "▁Pro": 1040,
      "▁keep": 1041,
      "▁news": 1042,
      "os": 1043,
      "▁res": 1044,
      "▁sle": 1045,
      "▁wit": 1046,
      "▁best": 1047,
      "▁against": 1048,
      "ces": 1049,
      "for": 1050,
      "hall": 1051,
      "ious": 1052,
      "▁Serv": 1053,
      "▁those": 1054,
      "ier": 1055,
      "ool": 1056,
      "hard": 1057,
      "▁SIC": 1058,
      "▁acc": 1059,
      "▁gri": 1060,
      "▁comp": 1061,
      "▁hence": 1062,
      "▁little": 1063,
      "▁Citizen": 1064,
      "▁SICINIUS": 1065,
      "▁Not": 1066,
      "▁hour": 1067,
      "▁lords": 1068,
      "▁thing": 1069,
      "une": 1070,
      "akes": 1071,
      "▁put": 1072,
      "ardon": 1073,
      "▁face": 1074,
      "lse": 1075,
      "ret": 1076,
      "sed": 1077,
      "ult": 1078,
      "▁On": 1079,
      "llow": 1080,
      "▁end": 1081,
      "▁kind": 1082,
      "EY": 1083,
      "ft": 1084,
      "▁two": 1085,
      "▁still": 1086,
      "▁young": 1087,
      "ont": 1088,
      "ork": 1089,
      "ield": 1090,
      "▁pri": 1091,
      "▁himself": 1092,
      "ud": 1093,
      "alk": 1094,
      "▁Thy": 1095,
      "▁pur": 1096,
      "▁LUCIO": 1097,
      "▁power": 1098,
      "ale": 1099,
      "ert": 1100,
      "ins": 1101,
      "▁IV": 1102,
      "▁Ric": 1103,
      "▁cha": 1104,
      "▁Richard": 1105,
      "▁CL": 1106,
      "▁sub": 1107,
      "▁count": 1108,
      "▁therefore": 1109,
      "TI": 1110,
      "cl": 1111,
      "ew": 1112,
      "▁gu": 1113,
      "ried": 1114,
      "cious": 1115,
      "iness": 1116,
      "▁dear": 1117,
      "▁else": 1118,
      "▁unto": 1119,
      "▁first": 1120,
      "▁peace": 1121,
      "▁BR": 1122,
      "▁sm": 1123,
      "ason": 1124,
      "hile": 1125,
      "▁Have": 1126,
      "▁Will": 1127,
      "▁duke": 1128,
      "▁till": 1129,
      "▁could": 1130,
      "ail": 1131,
      "ect": 1132,
      "ile": 1133,
      "uty": 1134,
      "▁co": 1135,
      "▁hus": 1136,
      "▁tra": 1137,
      "▁back": 1138,
      "▁words": 1139,
      "▁though": 1140,
      "ETH": 1141,
      "LIZ": 1142,
      "▁bid": 1143,
      "▁dre": 1144,
      "▁tre": 1145,
      "ABETH": 1146,
      "▁ELIZ": 1147,
      "▁York": 1148,
      "▁fell": 1149,
      "▁find": 1150,
      "▁need": 1151,
      "▁earth": 1152,
      "▁tongue": 1153,
      "▁ELIZABETH": 1154,
      "ius": 1155,
      "yal": 1156,
      "band": 1157,
      "ople": 1158,
      "▁lady": 1159,
      "▁thine": 1160,
      "ty": 1161,
      "IAN": 1162,
      "men": 1163,
      "eech": 1164,
      "orse": 1165,
      "▁bra": 1166,
      "▁hel": 1167,
      "▁home": 1168,
      "▁hope": 1169,
      "▁seem": 1170,
      "▁forth": 1171,
      "ark": 1172,
      "eth": 1173,
      "ray": 1174,
      "enry": 1175,
      "▁Yet": 1176,
      "▁high": 1177,
      "▁Henry": 1178,
      "▁husband": 1179,
      "vere": 1180,
      "▁Good": 1181,
      "▁right": 1182,
      "get": 1183,
      "▁chan": 1184,
      "tw": 1185,
      "ARW": 1186,
      "ICK": 1187,
      "uth": 1188,
      "▁ban": 1189,
      "▁WARW": 1190,
      "▁mind": 1191,
      "▁people": 1192,
      "▁WARWICK": 1193,
      "ds": 1194,
      "ix": 1195,
      "AST": 1196,
      "ach": 1197,
      "hip": 1198,
      "rer": 1199,
      "▁Do": 1200,
      "▁All": 1201,
      "▁che": 1202,
      "ister": 1203,
      "▁char": 1204,
      "▁conf": 1205,
      "▁show": 1206,
      "▁Shall": 1207,
      "ged": 1208,
      "▁bri": 1209,
      "▁hands": 1210,
      "HAM": 1211,
      "fort": 1212,
      "▁imp": 1213,
      "▁joy": 1214,
      "▁why": 1215,
      "▁Nurse": 1216,
      "▁cause": 1217,
      "▁master": 1218,
      "UL": 1219,
      "▁gl": 1220,
      "APUL": 1221,
      "▁law": 1222,
      "▁They": 1223,
      "▁mist": 1224,
      "▁none": 1225,
      "▁once": 1226,
      "▁said": 1227,
      "▁serv": 1228,
      "APULET": 1229,
      "▁CAPULET": 1230,
      "▁fort": 1231,
      "▁every": 1232,
      "GE": 1233,
      "IL": 1234,
      "MIO": 1235,
      "ren": 1236,
      "▁bod": 1237,
      "ousin": 1238,
      "▁bring": 1239,
      "RI": 1240,
      "bt": 1241,
      "▁dou": 1242,
      "UCK": 1243,
      "eed": 1244,
      "UTUS": 1245,
      "ates": 1246,
      "▁BUCK": 1247,
      "▁pass": 1248,
      "INGHAM": 1249,
      "▁BRUTUS": 1250,
      "▁please": 1251,
      "▁BUCKINGHAM": 1252,
      "lt": 1253,
      "BRO": 1254,
      "ESS": 1255,
      "iet": 1256,
      "ird": 1257,
      "▁BOL": 1258,
      "BROKE": 1259,
      "RANIO": 1260,
      "▁From": 1261,
      "▁light": 1262,
      "▁BOLING": 1263,
      "▁TRANIO": 1264,
      "▁BOLINGBROKE": 1265,
      "eel": 1266,
      "▁wo": 1267,
      "swer": 1268,
      "vost": 1269,
      "▁bes": 1270,
      "▁nat": 1271,
      "▁thr": 1272,
      "▁royal": 1273,
      "▁tears": 1274,
      "▁whose": 1275,
      "▁present": 1276,
      "mb": 1277,
      "ary": 1278,
      "cle": 1279,
      "its": 1280,
      "▁Our": 1281,
      "▁boy": 1282,
      "▁came": 1283,
      "▁just": 1284,
      "▁since": 1285,
      "lf": 1286,
      "vy": 1287,
      "ock": 1288,
      "ory": 1289,
      "roke": 1290,
      "▁dev": 1291,
      "▁full": 1292,
      "▁after": 1293,
      "▁heard": 1294,
      "▁under": 1295,
      "▁wrong": 1296,
      "▁pardon": 1297,
      "NE": 1298,
      "GAR": 1299,
      "pose": 1300,
      "GARET": 1301,
      "▁happ": 1302,
      "▁land": 1303,
      "▁place": 1304,
      "▁MARGARET": 1305,
      "ATH": 1306,
      "ens": 1307,
      "AMIL": 1308,
      "▁ere": 1309,
      "▁mis": 1310,
      "▁King": 1311,
      "▁last": 1312,
      "▁state": 1313,
      "sand": 1314,
      "▁care": 1315,
      "▁hold": 1316,
      "▁kill": 1317,
      "▁meet": 1318,
      "▁sorrow": 1319,
      "ORD": 1320,
      "GELO": 1321,
      "cent": 1322,
      "esty": 1323,
      "▁GRE": 1324,
      "▁eye": 1325,
      "ition": 1326,
      "▁help": 1327,
      "▁whom": 1328,
      "▁ANGELO": 1329,
      "▁thousand": 1330,
      "▁Eng": 1331,
      "▁fal": 1332,
      "ARINA": 1333,
      "▁less": 1334,
      "arence": 1335,
      "▁answer": 1336,
      "▁follow": 1337,
      "SC": 1338,
      "irt": 1339,
      "▁Sh": 1340,
      "▁ch": 1341,
      "cius": 1342,
      "▁bus": 1343,
      "▁far": 1344,
      "▁pat": 1345,
      "▁sun": 1346,
      "ceive": 1347,
      "▁KATH": 1348,
      "▁enem": 1349,
      "▁fool": 1350,
      "▁weep": 1351,
      "selves": 1352,
      "▁about": 1353,
      "▁shame": 1354,
      "▁hither": 1355,
      "▁Clarence": 1356,
      "▁KATHARINA": 1357,
      "iol": 1358,
      "urde": 1359,
      "▁fall": 1360,
      "▁maid": 1361,
      "▁Marcius": 1362,
      "▁gentleman": 1363,
      "day": 1364,
      "▁ob": 1365,
      "asure": 1366,
      "▁into": 1367,
      "▁Un": 1368,
      "▁Up": 1369,
      "ALUS": 1370,
      "▁ESC": 1371,
      "▁coun": 1372,
      "▁hate": 1373,
      "▁court": 1374,
      "▁grief": 1375,
      "▁makes": 1376,
      "▁cousin": 1377,
      "▁ESCALUS": 1378,
      "▁gracious": 1379,
      "air": 1380,
      "▁Al": 1381,
      "imes": 1382,
      "ject": 1383,
      "▁stri": 1384,
      "▁woman": 1385,
      "iv": 1386,
      "ove": 1387,
      "▁Hath": 1388,
      "▁stre": 1389,
      "▁turn": 1390,
      "▁worth": 1391,
      "▁comfort": 1392,
      "alt": 1393,
      "ild": 1394,
      "ons": 1395,
      "deed": 1396,
      "ices": 1397,
      "ling": 1398,
      "▁bed": 1399,
      "▁hum": 1400,
      "▁DUCH": 1401,
      "▁Duke": 1402,
      "▁dost": 1403,
      "▁talk": 1404,
      "▁wilt": 1405,
      "▁sleep": 1406,
      "urderer": 1407,
      "▁DUCHESS": 1408,
      "ERC": 1409,
      "itor": 1410,
      "ount": 1411,
      "pher": 1412,
      "▁bel": 1413,
      "▁Ange": 1414,
      "▁body": 1415,
      "▁over": 1416,
      "▁i": 1417,
      "ute": 1418,
      "▁bu": 1419,
      "▁Her": 1420,
      "▁att": 1421,
      "▁dra": 1422,
      "▁inst": 1423,
      "morrow": 1424,
      "▁fault": 1425,
      "▁sound": 1426,
      "▁thank": 1427,
      "▁Angelo": 1428,
      "IA": 1429,
      "ised": 1430,
      "▁adv": 1431,
      "ience": 1432,
      "▁play": 1433,
      "AMILLO": 1434,
      "▁false": 1435,
      "▁prove": 1436,
      "▁indeed": 1437,
      "▁CAMILLO": 1438,
      "▁another": 1439,
      "ily": 1440,
      "▁vo": 1441,
      "ieve": 1442,
      "omet": 1443,
      "▁has": 1444,
      "▁ret": 1445,
      "▁ser": 1446,
      "▁use": 1447,
      "▁wel": 1448,
      "▁Even": 1449,
      "▁deed": 1450,
      "▁Would": 1451,
      "▁sword": 1452,
      "▁fellow": 1453,
      "▁Provost": 1454,
      "ENS": 1455,
      "ORT": 1456,
      "ade": 1457,
      "ans": 1458,
      "▁bo": 1459,
      "▁HORT": 1460,
      "▁even": 1461,
      "▁pers": 1462,
      "▁vill": 1463,
      "▁fight": 1464,
      "▁matter": 1465,
      "▁HORTENS": 1466,
      "▁fortune": 1467,
      "RIAR": 1468,
      "hold": 1469,
      "▁Upon": 1470,
      "▁sent": 1471,
      "▁FRIAR": 1472,
      "▁grave": 1473,
      "▁prison": 1474,
      "▁sovere": 1475,
      "▁country": 1476,
      "▁HORTENSIO": 1477,
      ",'": 1478,
      "STA": 1479,
      "eal": 1480,
      "ury": 1481,
      "APTI": 1482,
      "▁Are": 1483,
      "▁cur": 1484,
      "▁dan": 1485,
      "▁merc": 1486,
      "▁send": 1487,
      "▁virt": 1488,
      "▁BAPTI": 1489,
      "▁doubt": 1490,
      "▁years": 1491,
      "▁banish": 1492,
      "▁rather": 1493,
      "▁BAPTISTA": 1494,
      "YC": 1495,
      "mp": 1496,
      "▁Ty": 1497,
      "▁gr": 1498,
      "OLYC": 1499,
      "fect": 1500,
      "ouch": 1501,
      "pect": 1502,
      "▁AUT": 1503,
      "▁COM": 1504,
      "▁ass": 1505,
      "▁hang": 1506,
      "▁want": 1507,
      "▁wish": 1508,
      "OLYCUS": 1509,
      "▁reven": 1510,
      "▁truth": 1511,
      "▁COMINIUS": 1512,
      "▁business": 1513,
      "▁AUTOLYCUS": 1514,
      ".'": 1515,
      "dd": 1516,
      "▁At": 1517,
      "▁CLAR": 1518,
      "▁More": 1519,
      "▁disc": 1520,
      "▁lies": 1521,
      "▁only": 1522,
      "▁Third": 1523,
      "▁shalt": 1524,
      "▁reason": 1525,
      "▁CLARENCE": 1526,
      "ms": 1527,
      "ere": 1528,
      "ior": 1529,
      "pen": 1530,
      "ENES": 1531,
      "▁cra": 1532,
      "▁sea": 1533,
      "pherd": 1534,
      "rance": 1535,
      "▁arms": 1536,
      "▁stra": 1537,
      "▁dream": 1538,
      "▁breath": 1539,
      "▁command": 1540,
      "ENV": 1541,
      "der": 1542,
      "▁gi": 1543,
      "OLIO": 1544,
      "ener": 1545,
      "▁NOR": 1546,
      "▁lay": 1547,
      "▁sec": 1548,
      "▁BENV": 1549,
      "▁prom": 1550,
      "▁Clown": 1551,
      "▁stran": 1552,
      "▁Gentle": 1553,
      "▁BENVOLIO": 1554,
      "SP": 1555,
      "ERO": 1556,
      "ROSP": 1557,
      "UMIO": 1558,
      "▁sen": 1559,
      "▁Take": 1560,
      "▁holy": 1561,
      "▁pity": 1562,
      "▁wind": 1563,
      "▁PROSP": 1564,
      "▁proud": 1565,
      "▁remem": 1566,
      "▁somet": 1567,
      "▁GRUMIO": 1568,
      "▁enough": 1569,
      "▁content": 1570,
      "▁PROSPERO": 1571,
      "ia": 1572,
      "hed": 1573,
      "ken": 1574,
      "▁Su": 1575,
      "ERCU": 1576,
      "ator": 1577,
      "▁Did": 1578,
      "▁bea": 1579,
      "▁Kate": 1580,
      "▁dare": 1581,
      "▁fare": 1582,
      "▁sold": 1583,
      "▁spir": 1584,
      "▁MERCU": 1585,
      "▁lives": 1586,
      "▁swear": 1587,
      "▁three": 1588,
      "▁MERCUTIO": 1589,
      "▁Murderer": 1590,
      "IS": 1591,
      "ike": 1592,
      "eter": 1593,
      "▁dep": 1594,
      "▁get": 1595,
      "▁Were": 1596,
      "▁gods": 1597,
      "▁tend": 1598,
      "▁nature": 1599,
      "▁within": 1600,
      "▁Servant": 1601,
      "▁villain": 1602,
      "▁welcome": 1603,
      "▁LUCENTIO": 1604,
      "OMP": 1605,
      "ars": 1606,
      "ham": 1607,
      "LAND": 1608,
      "▁gre": 1609,
      "▁saw": 1610,
      "ester": 1611,
      "▁POMP": 1612,
      "▁foul": 1613,
      "▁free": 1614,
      "▁kiss": 1615,
      "▁happy": 1616,
      "▁madam": 1617,
      "▁sister": 1618,
      "▁things": 1619,
      "▁mistress": 1620,
      "▁sovereign": 1621,
      "AUL": 1622,
      "any": 1623,
      "apt": 1624,
      "att": 1625,
      "hal": 1626,
      "unt": 1627,
      "ient": 1628,
      "vers": 1629,
      "▁Was": 1630,
      "▁Give": 1631,
      "▁PAUL": 1632,
      "▁city": 1633,
      "▁break": 1634,
      "▁means": 1635,
      "▁yield": 1636,
      "▁PAULINA": 1637,
      "▁beseech": 1638,
      "▁subject": 1639,
      "eft": 1640,
      "ery": 1641,
      "▁aw": 1642,
      "ague": 1643,
      "▁Say": 1644,
      "▁den": 1645,
      "▁mer": 1646,
      "onder": 1647,
      "▁Look": 1648,
      "▁born": 1649,
      "▁oath": 1650,
      "gainst": 1651,
      "gether": 1652,
      "▁horse": 1653,
      "▁yours": 1654,
      "▁GREMIO": 1655,
      "▁POMPEY": 1656,
      "LIX": 1657,
      "NIA": 1658,
      "anc": 1659,
      "▁PO": 1660,
      "OLUM": 1661,
      "balt": 1662,
      "ches": 1663,
      "usic": 1664,
      "▁Com": 1665,
      "▁dru": 1666,
      "▁tem": 1667,
      "▁fire": 1668,
      "▁supp": 1669,
      "▁POLIX": 1670,
      "▁VOLUM": 1671,
      "▁faith": 1672,
      "▁looks": 1673,
      "▁while": 1674,
      "▁wound": 1675,
      "▁bloody": 1676,
      "▁England": 1677,
      "▁VOLUMNIA": 1678,
      "▁yourself": 1679,
      "▁POLIXENES": 1680,
      "ey": 1681,
      "ues": 1682,
      "INGS": 1683,
      "▁car": 1684,
      "▁maj": 1685,
      "▁spo": 1686,
      "▁win": 1687,
      "enger": 1688,
      "▁Fare": 1689,
      "▁HAST": 1690,
      "▁cond": 1691,
      "▁requ": 1692,
      "centio": 1693,
      "ingman": 1694,
      "▁common": 1695,
      "▁traitor": 1696,
      "▁HASTINGS": 1697,
      "▁Servingman": 1698,
      "by": 1699,
      "AUR": 1700,
      "rong": 1701,
      "▁Can": 1702,
      "▁May": 1703,
      "▁def": 1704,
      "▁lam": 1705,
      "▁mon": 1706,
      "broke": 1707,
      "▁Hast": 1708,
      "▁LAUR": 1709,
      "▁mark": 1710,
      "ertain": 1711,
      "▁uncle": 1712,
      "essenger": 1713,
      "▁LAURENCE": 1714,
      "▁children": 1715,
      "BY": 1716,
      "BER": 1717,
      "▁Ah": 1718,
      "form": 1719,
      "▁Jul": 1720,
      "▁met": 1721,
      "▁val": 1722,
      "▁beat": 1723,
      "▁late": 1724,
      "▁left": 1725,
      "▁soon": 1726,
      "▁sight": 1727,
      "▁Tybalt": 1728,
      "▁danger": 1729,
      "▁tender": 1730,
      "▁majesty": 1731,
      "▁Therefore": 1732,
      "FF": 1733,
      "ten": 1734,
      "use": 1735,
      "▁Sp": 1736,
      "LIFF": 1737,
      "THUM": 1738,
      "like": 1739,
      "▁sin": 1740,
      "▁woe": 1741,
      "▁days": 1742,
      "▁foot": 1743,
      "▁save": 1744,
      "▁seen": 1745,
      "▁told": 1746,
      "BERLAND": 1747,
      "▁NORTHUM": 1748,
      "▁warrant": 1749,
      "▁NORTHUMBERLAND": 1750,
      "ID": 1751,
      "TA": 1752,
      "rem": 1753,
      "▁Lu": 1754,
      "▁Pl": 1755,
      "ides": 1756,
      "idow": 1757,
      "▁sad": 1758,
      "▁does": 1759,
      "▁gener": 1760,
      "▁mercy": 1761,
      "▁report": 1762,
      "▁return": 1763,
      "▁farewell": 1764,
      "up": 1765,
      "dom": 1766,
      "hes": 1767,
      "rel": 1768,
      "earn": 1769,
      "ring": 1770,
      "ters": 1771,
      "unes": 1772,
      "▁sit": 1773,
      "▁ANNE": 1774,
      "▁deep": 1775,
      "▁gold": 1776,
      "▁sure": 1777,
      "▁heavy": 1778,
      "▁marry": 1779,
      "▁Though": 1780,
      "▁purpose": 1781,
      "▁through": 1782,
      "▁without": 1783,
      "▁together": 1784,
      "bl": 1785,
      "ca": 1786,
      "ERD": 1787,
      "aim": 1788,
      "ict": 1789,
      "▁PR": 1790,
      "INCE": 1791,
      "cher": 1792,
      "enty": 1793,
      "▁Had": 1794,
      "▁cho": 1795,
      "▁ill": 1796,
      "▁rec": 1797,
      "ments": 1798,
      "▁Clif": 1799,
      "▁Mont": 1800,
      "▁cold": 1801,
      "▁ears": 1802,
      "▁grow": 1803,
      "▁lost": 1804,
      "ignior": 1805,
      "▁deser": 1806,
      "▁nurse": 1807,
      "▁Juliet": 1808,
      "▁PRINCE": 1809,
      "▁person": 1810,
      "▁strange": 1811,
      "▁Clifford": 1812,
      "az": 1813,
      "mer": 1814,
      "ush": 1815,
      "▁MI": 1816,
      "▁Ri": 1817,
      "ains": 1818,
      "ceed": 1819,
      "ours": 1820,
      "ross": 1821,
      "vent": 1822,
      "▁Bol": 1823,
      "▁Cam": 1824,
      "▁Cor": 1825,
      "▁ask": 1826,
      "▁wat": 1827,
      "▁Tell": 1828,
      "▁disp": 1829,
      "▁suff": 1830,
      "▁liege": 1831,
      "▁pluck": 1832,
      "▁times": 1833,
      "▁Boling": 1834,
      "▁spirit": 1835,
      "▁believe": 1836,
      "▁thyself": 1837,
      "▁Bolingbroke": 1838,
      "ets": 1839,
      "ift": 1840,
      "▁Ha": 1841,
      "▁Wh": 1842,
      "▁jo": 1843,
      "ever": 1844,
      "▁One": 1845,
      "▁age": 1846,
      "▁air": 1847,
      "▁sil": 1848,
      "▁Away": 1849,
      "▁Some": 1850,
      "▁heir": 1851,
      "▁loss": 1852,
      "▁says": 1853,
      "▁Whose": 1854,
      "▁learn": 1855,
      "▁point": 1856,
      "▁Should": 1857,
      "▁Signior": 1858,
      "aid": 1859,
      "ced": 1860,
      "ial": 1861,
      "ner": 1862,
      "▁cry": 1863,
      "▁fly": 1864,
      "▁past": 1865,
      "▁devil": 1866,
      "▁friar": 1867,
      "▁haste": 1868,
      "▁trust": 1869,
      "▁Coriol": 1870,
      "▁desire": 1871,
      "▁ground": 1872,
      "▁instru": 1873,
      "▁entreat": 1874,
      "▁justice": 1875,
      "▁Farewell": 1876,
      "gu": 1877,
      "sh": 1878,
      "aud": 1879,
      "ges": 1880,
      "ina": 1881,
      "ixt": 1882,
      "ined": 1883,
      "outh": 1884,
      "▁Sen": 1885,
      "▁mur": 1886,
      "▁ord": 1887,
      "▁vis": 1888,
      "aking": 1889,
      "night": 1890,
      "▁Like": 1891,
      "▁Pray": 1892,
      "▁betw": 1893,
      "▁bold": 1894,
      "▁fast": 1895,
      "▁near": 1896,
      "▁found": 1897,
      "▁slain": 1898,
      "▁France": 1899,
      "▁toward": 1900,
      "▁service": 1901,
      "▁remember": 1902,
      "▁straight": 1903,
      "IZ": 1904,
      "LE": 1905,
      "UF": 1906,
      "LOR": 1907,
      "▁Gl": 1908,
      "IZEL": 1909,
      "UFID": 1910,
      "oman": 1911,
      "ution": 1912,
      "▁FLOR": 1913,
      "▁hard": 1914,
      "▁wear": 1915,
      "▁AUFID": 1916,
      "▁These": 1917,
      "▁alone": 1918,
      "▁curse": 1919,
      "▁quick": 1920,
      "▁beauty": 1921,
      "▁strong": 1922,
      "▁worthy": 1923,
      "▁married": 1924,
      "▁AUFIDIUS": 1925,
      "▁FLORIZEL": 1926,
      "▁Messenger": 1927,
      "xt": 1928,
      "ION": 1929,
      "TON": 1930,
      "let": 1931,
      "▁hu": 1932,
      "adam": 1933,
      "ithe": 1934,
      "ning": 1935,
      "ured": 1936,
      "▁See": 1937,
      "▁bec": 1938,
      "▁run": 1939,
      "▁woo": 1940,
      "audio": 1941,
      "▁exec": 1942,
      "▁open": 1943,
      "▁poss": 1944,
      "▁enemy": 1945,
      "▁grant": 1946,
      "▁ready": 1947,
      "▁touch": 1948,
      "▁Claudio": 1949,
      "▁brought": 1950,
      "▁general": 1951,
      "▁revenge": 1952,
      "!'": 1953,
      "bs": 1954,
      "gs": 1955,
      "ERS": 1956,
      "aunt": 1957,
      "cept": 1958,
      "ible": 1959,
      "inks": 1960,
      "▁fur": 1961,
      "▁inc": 1962,
      "▁inf": 1963,
      "▁iss": 1964,
      "umber": 1965,
      "▁deli": 1966,
      "▁duty": 1967,
      "▁lose": 1968,
      "▁prof": 1969,
      "▁quar": 1970,
      "▁canst": 1971,
      "▁hours": 1972,
      "▁knows": 1973,
      "▁youth": 1974,
      "▁charge": 1975,
      "▁itself": 1976,
      "▁Senator": 1977,
      "▁confess": 1978,
      "▁thoughts": 1979,
      "▁Gentleman": 1980,
      "AS": 1981,
      "EB": 1982,
      "pl": 1983,
      "ua": 1984,
      "vo": 1985,
      "ouc": 1986,
      "CIUS": 1987,
      "ched": 1988,
      "illo": 1989,
      "ship": 1990,
      "▁Bec": 1991,
      "▁SEB": 1992,
      "▁del": 1993,
      "▁par": 1994,
      "ithee": 1995,
      "riage": 1996,
      "▁desp": 1997,
      "▁dist": 1998,
      "▁feel": 1999,
      "▁morn": 2000,
      "▁read": 2001,
      "ASTIAN": 2002,
      "▁Glouc": 2003,
      "▁Madam": 2004,
      "▁speed": 2005,
      "▁Master": 2006,
      "▁stands": 2007,
      "▁streng": 2008,
      "▁twenty": 2009,
      "▁Against": 2010,
      "▁MARCIUS": 2011,
      "▁Montague": 2012,
      "▁Shepherd": 2013,
      "▁SEBASTIAN": 2014,
      "OW": 2015,
      "op": 2016,
      "eep": 2017,
      "olk": 2018,
      "oop": 2019,
      "ump": 2020,
      "▁Pr": 2021,
      "cess": 2022,
      "▁div": 2023,
      "▁jud": 2024,
      "▁fore": 2025,
      "▁half": 2026,
      "▁hell": 2027,
      "▁mock": 2028,
      "▁post": 2029,
      "ingham": 2030,
      "▁field": 2031,
      "▁resol": 2032,
      "fection": 2033,
      "▁behold": 2034,
      "▁Camillo": 2035,
      "▁counsel": 2036,
      "▁fearful": 2037,
      "no": 2038,
      "DEL": 2039,
      "ads": 2040,
      "alm": 2041,
      "ols": 2042,
      "▁Bo": 2043,
      "▁ye": 2044,
      "osom": 2045,
      "▁cut": 2046,
      "▁dam": 2047,
      "▁min": 2048,
      "▁ter": 2049,
      "DELLO": 2050,
      "ortal": 2051,
      "▁BION": 2052,
      "▁Buck": 2053,
      "▁Till": 2054,
      "▁batt": 2055,
      "▁each": 2056,
      "▁trib": 2057,
      "▁work": 2058,
      "▁wret": 2059,
      "▁bosom": 2060,
      "▁bound": 2061,
      "▁known": 2062,
      "▁short": 2063,
      "▁hearts": 2064,
      "▁honest": 2065,
      "▁Hastings": 2066,
      "▁marriage": 2067,
      "▁BIONDELLO": 2068,
      "▁Buckingham": 2069,
      "▁Gloucester": 2070,
      "of": 2071,
      "sc": 2072,
      "rah": 2073,
      "the": 2074,
      "▁ve": 2075,
      "ench": 2076,
      "folk": 2077,
      "iers": 2078,
      "ones": 2079,
      "pare": 2080,
      "▁Cap": 2081,
      "▁ten": 2082,
      "▁tit": 2083,
      "▁whi": 2084,
      "▁Thus": 2085,
      "▁Vols": 2086,
      "▁dish": 2087,
      "▁draw": 2088,
      "▁harm": 2089,
      "▁seek": 2090,
      "▁suit": 2091,
      "▁tale": 2092,
      "▁guilt": 2093,
      "▁serve": 2094,
      "▁widow": 2095,
      "▁women": 2096,
      "▁attend": 2097,
      "▁murder": 2098,
      "▁strike": 2099,
      "▁voices": 2100,
      "▁wonder": 2101,
      "▁Norfolk": 2102,
      "▁company": 2103,
      "▁highness": 2104,
      "▁something": 2105,
      "OP": 2106,
      "Tw": 2107,
      "▁CA": 2108,
      "▁ag": 2109,
      "ERLE": 2110,
      "hood": 2111,
      "most": 2112,
      "▁AUM": 2113,
      "▁bur": 2114,
      "▁cor": 2115,
      "▁sat": 2116,
      "TONIO": 2117,
      "ander": 2118,
      "ished": 2119,
      "▁knew": 2120,
      "▁pret": 2121,
      "▁side": 2122,
      "▁sing": 2123,
      "▁didst": 2124,
      "▁watch": 2125,
      "▁change": 2126,
      "▁loving": 2127,
      "▁ANTONIO": 2128,
      "▁AUMERLE": 2129,
      "▁heavens": 2130,
      "▁Lucentio": 2131,
      "▁strength": 2132,
      "▁gentlemen": 2133,
      "ZA": 2134,
      "ONZA": 2135,
      "ents": 2136,
      "▁Pet": 2137,
      "▁Wel": 2138,
      "▁act": 2139,
      "▁aff": 2140,
      "▁bit": 2141,
      "▁Bian": 2142,
      "▁Lanc": 2143,
      "▁Tran": 2144,
      "▁sake": 2145,
      "▁stir": 2146,
      "▁wast": 2147,
      "ONZALO": 2148,
      "▁Marry": 2149,
      "▁brave": 2150,
      "▁cloud": 2151,
      "▁enter": 2152,
      "ethinks": 2153,
      "▁GONZALO": 2154,
      "▁enemies": 2155,
      "▁pleasure": 2156,
      "▁Lancaster": 2157,
      "bly": 2158,
      "fid": 2159,
      "ils": 2160,
      "rew": 2161,
      "▁Sw": 2162,
      "▁dr": 2163,
      "▁ty": 2164,
      "▁wa": 2165,
      "ives": 2166,
      "oose": 2167,
      "▁HER": 2168,
      "▁Pom": 2169,
      "▁Unt": 2170,
      "▁ext": 2171,
      "▁gar": 2172,
      "▁pie": 2173,
      "▁pra": 2174,
      "▁Lady": 2175,
      "▁Most": 2176,
      "▁begg": 2177,
      "▁chee": 2178,
      "▁next": 2179,
      "▁pale": 2180,
      "▁sign": 2181,
      "ceived": 2182,
      "▁breat": 2183,
      "▁close": 2184,
      "▁gates": 2185,
      "▁music": 2186,
      "▁souls": 2187,
      "▁title": 2188,
      "▁Bianca": 2189,
      "▁coming": 2190,
      "▁course": 2191,
      "▁suffer": 2192,
      "▁thanks": 2193,
      "▁withal": 2194,
      "▁deliver": 2195,
      "be": 2196,
      "AUD": 2197,
      "ats": 2198,
      "els": 2199,
      "▁Au": 2200,
      "▁Ch": 2201,
      "▁sk": 2202,
      "etch": 2203,
      "vour": 2204,
      "▁abs": 2205,
      "▁fit": 2206,
      "AUDIO": 2207,
      "MIONE": 2208,
      "claim": 2209,
      "oward": 2210,
      "▁Rich": 2211,
      "▁forg": 2212,
      "▁grie": 2213,
      "▁jest": 2214,
      "▁lips": 2215,
      "▁rich": 2216,
      "▁sick": 2217,
      "▁weak": 2218,
      "▁CLIFF": 2219,
      "▁Petru": 2220,
      "▁order": 2221,
      "▁plain": 2222,
      "▁become": 2223,
      "▁either": 2224,
      "▁CLAUDIO": 2225,
      "▁CLIFFORD": 2226,
      "▁HERMIONE": 2227,
      "▁patience": 2228,
      "▁themselves": 2229,
      "DA": 2230,
      "isf": 2231,
      "kes": 2232,
      "lly": 2233,
      "oof": 2234,
      "ses": 2235,
      "urp": 2236,
      "▁EL": 2237,
      "▁JO": 2238,
      "▁ac": 2239,
      "arry": 2240,
      "chio": 2241,
      "east": 2242,
      "irth": 2243,
      "race": 2244,
      "rest": 2245,
      "ries": 2246,
      "twas": 2247,
      "▁Bes": 2248,
      "▁reg": 2249,
      "▁ven": 2250,
      "▁wis": 2251,
      "RANDA": 2252,
      "ready": 2253,
      "twere": 2254,
      "▁Call": 2255,
      "▁LORD": 2256,
      "▁Make": 2257,
      "▁cast": 2258,
      "▁forb": 2259,
      "▁prop": 2260,
      "▁same": 2261,
      "▁took": 2262,
      "▁wall": 2263,
      "fidius": 2264,
      "▁Being": 2265,
      "▁Since": 2266,
      "▁along": 2267,
      "▁cheer": 2268,
      "▁merry": 2269,
      "▁sworn": 2270,
      "▁worse": 2271,
      "▁Tranio": 2272,
      "▁breast": 2273,
      "▁consul": 2274,
      "▁forget": 2275,
      "▁poison": 2276,
      "▁virtue": 2277,
      "▁MIRANDA": 2278,
      "▁further": 2279,
      "▁Aufidius": 2280,
      "▁Petruchio": 2281,
      "HN": 2282,
      "cy": 2283,
      "SON": 2284,
      "lst": 2285,
      "▁Re": 2286,
      "▁cr": 2287,
      "▁du": 2288,
      "▁ta": 2289,
      "ally": 2290,
      "ions": 2291,
      "rows": 2292,
      "rust": 2293,
      "vern": 2294,
      "▁bad": 2295,
      "▁emb": 2296,
      "▁enc": 2297,
      "▁red": 2298,
      "▁wed": 2299,
      "▁Alas": 2300,
      "▁JOHN": 2301,
      "▁book": 2302,
      "▁dire": 2303,
      "▁four": 2304,
      "▁gave": 2305,
      "▁move": 2306,
      "▁self": 2307,
      "▁soft": 2308,
      "▁wise": 2309,
      "▁begin": 2310,
      "▁given": 2311,
      "▁issue": 2312,
      "▁liber": 2313,
      "▁loves": 2314,
      "▁mouth": 2315,
      "▁battle": 2316,
      "▁office": 2317,
      "▁already": 2318,
      "▁consent": 2319,
      "▁morning": 2320,
      "▁request": 2321,
      "▁Hereford": 2322,
      "▁dangerous": 2323,
      "nk": 2324,
      "pes": 2325,
      "▁Ar": 2326,
      "anus": 2327,
      "dden": 2328,
      "each": 2329,
      "fter": 2330,
      "icer": 2331,
      "mber": 2332,
      "mond": 2333,
      "orge": 2334,
      "uous": 2335,
      "used": 2336,
      "▁Yes": 2337,
      "▁exp": 2338,
      "▁foe": 2339,
      "▁gro": 2340,
      "▁lad": 2341,
      "▁pay": 2342,
      "▁burn": 2343,
      "▁goes": 2344,
      "▁sons": 2345,
      "▁succ": 2346,
      "▁trou": 2347,
      "▁Speak": 2348,
      "▁Tower": 2349,
      "▁black": 2350,
      "▁feast": 2351,
      "▁frown": 2352,
      "▁Before": 2353,
      "▁satisf": 2354,
      "▁wounds": 2355,
      "▁between": 2356,
      "▁neither": 2357,
      "▁quarrel": 2358,
      "▁Richmond": 2359,
      "▁soldiers": 2360,
      "NT": 2361,
      "awd": 2362,
      "hem": 2363,
      "irm": 2364,
      "ots": 2365,
      "▁Ab": 2366,
      "aret": 2367,
      "aris": 2368,
      "chan": 2369,
      "empt": 2370,
      "ging": 2371,
      "ires": 2372,
      "rist": 2373,
      "ting": 2374,
      "ures": 2375,
      "▁bar": 2376,
      "▁dro": 2377,
      "▁est": 2378,
      "▁hot": 2379,
      "▁mal": 2380,
      "▁und": 2381,
      "TESBY": 2382,
      "garet": 2383,
      "owers": 2384,
      "▁Must": 2385,
      "▁Such": 2386,
      "▁case": 2387,
      "▁dark": 2388,
      "▁priv": 2389,
      "▁sigh": 2390,
      "▁thri": 2391,
      "▁vict": 2392,
      "▁bless": 2393,
      "▁bride": 2394,
      "▁brief": 2395,
      "▁often": 2396,
      "▁water": 2397,
      "▁Unless": 2398,
      "▁having": 2399,
      "▁speech": 2400,
      "▁thence": 2401,
      "▁Because": 2402,
      "▁CATESBY": 2403,
      "▁Welcome": 2404,
      "▁servant": 2405,
      "▁presence": 2406,
      "po": 2407,
      "ILI": 2408,
      "emn": 2409,
      "ona": 2410,
      "▁ev": 2411,
      "alth": 2412,
      "ends": 2413,
      "▁ble": 2414,
      "▁bow": 2415,
      "▁got": 2416,
      "▁pen": 2417,
      "▁sum": 2418,
      "cient": 2419,
      "ondon": 2420,
      "▁Bapt": 2421,
      "▁Both": 2422,
      "▁GREY": 2423,
      "▁Keep": 2424,
      "▁Whom": 2425,
      "▁deny": 2426,
      "▁town": 2427,
      "▁wars": 2428,
      "▁Saint": 2429,
      "▁Their": 2430,
      "▁compl": 2431,
      "▁dread": 2432,
      "▁inter": 2433,
      "▁kings": 2434,
      "▁loved": 2435,
      "▁seems": 2436,
      "▁spoke": 2437,
      "▁visit": 2438,
      "▁voice": 2439,
      "▁London": 2440,
      "▁mighty": 2441,
      "▁mortal": 2442,
      "▁throne": 2443,
      "▁Baptist": 2444,
      "▁flatter": 2445,
      "▁respect": 2446,
      "▁Margaret": 2447,
      "▁Coriolanus": 2448,
      "CA": 2449,
      "IV": 2450,
      "ip": 2451,
      "so": 2452,
      "bed": 2453,
      "ern": 2454,
      "oun": 2455,
      "▁De": 2456,
      "▁Ge": 2457,
      "ILIA": 2458,
      "iant": 2459,
      "ided": 2460,
      "ired": 2461,
      "ourn": 2462,
      "ught": 2463,
      "▁Ere": 2464,
      "▁RIV": 2465,
      "▁bab": 2466,
      "▁bro": 2467,
      "▁buy": 2468,
      "▁cap": 2469,
      "▁col": 2470,
      "▁fra": 2471,
      "▁hur": 2472,
      "▁vow": 2473,
      "IANCA": 2474,
      "▁Isab": 2475,
      "▁Lest": 2476,
      "▁prot": 2477,
      "▁safe": 2478,
      "ainted": 2479,
      "▁Paris": 2480,
      "▁deeds": 2481,
      "▁knock": 2482,
      "▁BIANCA": 2483,
      "▁George": 2484,
      "▁RIVERS": 2485,
      "▁action": 2486,
      "▁appear": 2487,
      "▁bitter": 2488,
      "▁dishon": 2489,
      "▁sudden": 2490,
      "▁ancient": 2491,
      "▁chamber": 2492,
      "▁prayers": 2493,
      "▁promise": 2494,
      "▁worship": 2495,
      "▁Baptista": 2496,
      "▁princely": 2497,
      "ls": 2498,
      "BOW": 2499,
      "cks": 2500,
      "esh": 2501,
      "now": 2502,
      "ura": 2503,
      "▁pu": 2504,
      "AUNT": 2505,
      "ated": 2506,
      "lish": 2507,
      "nown": 2508,
      "oney": 2509,
      "resh": 2510,
      "urch": 2511,
      "▁ang": 2512,
      "▁ign": 2513,
      "▁lim": 2514,
      "▁opp": 2515,
      "▁reb": 2516,
      "▁sac": 2517,
      "essed": 2518,
      "otion": 2519,
      "right": 2520,
      "stand": 2521,
      "▁bawd": 2522,
      "▁lead": 2523,
      "▁rage": 2524,
      "▁viol": 2525,
      "antage": 2526,
      "▁ELBOW": 2527,
      "▁GAUNT": 2528,
      "▁Roman": 2529,
      "▁Stand": 2530,
      "▁appro": 2531,
      "▁creat": 2532,
      "▁cross": 2533,
      "▁fetch": 2534,
      "▁flesh": 2535,
      "▁heads": 2536,
      "▁scorn": 2537,
      "▁coward": 2538,
      "▁lament": 2539,
      "▁triump": 2540,
      "▁kingdom": 2541,
      "▁patient": 2542,
      "▁prepare": 2543,
      "▁success": 2544,
      "▁valiant": 2545,
      "▁witness": 2546,
      "▁presently": 2547,
      "UR": 2548,
      "to": 2549,
      "▁3": 2550,
      "GUE": 2551,
      "iff": 2552,
      "ler": 2553,
      "urs": 2554,
      "▁Bl": 2555,
      "▁Jo": 2556,
      "▁Ox": 2557,
      "▁TY": 2558,
      "▁ow": 2559,
      "ONTA": 2560,
      "aken": 2561,
      "mand": 2562,
      "sper": 2563,
      "▁cle": 2564,
      "▁eat": 2565,
      "▁ins": 2566,
      "▁lab": 2567,
      "▁unw": 2568,
      "antag": 2569,
      "ensio": 2570,
      "ities": 2571,
      "itted": 2572,
      "▁Hort": 2573,
      "▁Merc": 2574,
      "▁gall": 2575,
      "▁kins": 2576,
      "▁lack": 2577,
      "▁moon": 2578,
      "▁prin": 2579,
      "▁scar": 2580,
      "▁wash": 2581,
      "▁MONTA": 2582,
      "▁Think": 2583,
      "▁drink": 2584,
      "▁least": 2585,
      "▁offer": 2586,
      "▁slave": 2587,
      "▁throw": 2588,
      "▁Christ": 2589,
      "▁Oxford": 2590,
      "▁defend": 2591,
      "▁faults": 2592,
      "▁secret": 2593,
      "▁forward": 2594,
      "▁prithee": 2595,
      "▁MONTAGUE": 2596,
      "▁tribunes": 2597,
      "▁Hortensio": 2598,
      "ac": 2599,
      "als": 2600,
      "bit": 2601,
      "ees": 2602,
      "ley": 2603,
      "pey": 2604,
      "ued": 2605,
      "▁id": 2606,
      "aked": 2607,
      "feit": 2608,
      "host": 2609,
      "ines": 2610,
      "king": 2611,
      "ully": 2612,
      "vest": 2613,
      "ying": 2614,
      "▁Con": 2615,
      "▁Gre": 2616,
      "▁Kat": 2617,
      "▁Whi": 2618,
      "▁ben": 2619,
      "▁fie": 2620,
      "▁mid": 2621,
      "▁nay": 2622,
      "▁occ": 2623,
      "▁sur": 2624,
      "▁Doth": 2625,
      "▁Hark": 2626,
      "▁damn": 2627,
      "▁dest": 2628,
      "▁hide": 2629,
      "▁writ": 2630,
      "asters": 2631,
      "harina": 2632,
      "▁Bohem": 2633,
      "▁North": 2634,
      "▁beast": 2635,
      "▁small": 2636,
      "▁Pompey": 2637,
      "▁almost": 2638,
      "▁chance": 2639,
      "▁depart": 2640,
      "▁pretty": 2641,
      "▁possess": 2642,
      "▁thither": 2643,
      "umberland": 2644,
      "▁subjects": 2645,
      "▁Katharina": 2646,
      "▁execution": 2647,
      "▁slaughter": 2648,
      "▁Northumberland": 2649,
      "AT": 2650,
      "RG": 2651,
      "ITA": 2652,
      "arl": 2653,
      "aul": 2654,
      "rum": 2655,
      "umb": 2656,
      "▁Ad": 2657,
      "▁Am": 2658,
      "▁Br": 2659,
      "▁Ca": 2660,
      "▁Ex": 2661,
      "▁ut": 2662,
      "hind": 2663,
      "oint": 2664,
      "then": 2665,
      "ural": 2666,
      "▁eas": 2667,
      "inger": 2668,
      "ingly": 2669,
      "ledge": 2670,
      "▁Hold": 2671,
      "▁PERD": 2672,
      "▁Paul": 2673,
      "▁VIRG": 2674,
      "▁base": 2675,
      "▁fill": 2676,
      "▁fond": 2677,
      "▁form": 2678,
      "▁glad": 2679,
      "▁inno": 2680,
      "▁pain": 2681,
      "▁stru": 2682,
      "▁tear": 2683,
      "▁wert": 2684,
      "cience": 2685,
      "perate": 2686,
      "▁Peace": 2687,
      "▁Sweet": 2688,
      "▁birth": 2689,
      "▁hadst": 2690,
      "▁trump": 2691,
      "▁usurp": 2692,
      "▁awhile": 2693,
      "▁favour": 2694,
      "▁goodly": 2695,
      "▁living": 2696,
      "▁whence": 2697,
      "▁Bohemia": 2698,
      "▁PERDITA": 2699,
      "▁certain": 2700,
      "▁hearing": 2701,
      "▁offence": 2702,
      "▁perform": 2703,
      "▁proceed": 2704,
      "▁quickly": 2705,
      "▁VIRGILIA": 2706,
      "▁virtuous": 2707,
      "LY": 2708,
      "ze": 2709,
      "dge": 2710,
      "eds": 2711,
      "eem": 2712,
      "raw": 2713,
      "ror": 2714,
      "▁ay": 2715,
      "▁ca": 2716,
      "▁ur": 2717,
      "IANA": 2718,
      "ding": 2719,
      "iest": 2720,
      "omes": 2721,
      "orth": 2722,
      "over": 2723,
      "▁Off": 2724,
      "▁SLY": 2725,
      "▁Yea": 2726,
      "▁adm": 2727,
      "▁inj": 2728,
      "▁pit": 2729,
      "▁shi": 2730,
      "▁tor": 2731,
      "edant": 2732,
      "force": 2733,
      "isure": 2734,
      "ustom": 2735,
      "▁Stay": 2736,
      "▁fier": 2737,
      "▁knee": 2738,
      "▁mild": 2739,
      "▁shad": 2740,
      "▁slew": 2741,
      "▁walk": 2742,
      "▁wild": 2743,
      "astard": 2744,
      "▁angry": 2745,
      "▁blows": 2746,
      "▁forsw": 2747,
      "▁kneel": 2748,
      "▁match": 2749,
      "▁pleas": 2750,
      "▁quiet": 2751,
      "▁worst": 2752,
      "▁Isabel": 2753,
      "▁church": 2754,
      "▁guilty": 2755,
      "▁lawful": 2756,
      "▁MARIANA": 2757,
      "▁greater": 2758,
      "▁leisure": 2759,
      "▁soldier": 2760,
      "▁treason": 2761,
      "▁weeping": 2762,
      "▁deserved": 2763,
      "▁affection": 2764,
      "gg": 2765,
      "arn": 2766,
      "awn": 2767,
      "gue": 2768,
      "joy": 2769,
      "ked": 2770,
      "med": 2771,
      "ony": 2772,
      "ual": 2773,
      "vol": 2774,
      "zen": 2775,
      "▁ST": 2776,
      "▁Tw": 2777,
      "▁ap": 2778,
      "▁em": 2779,
      "ARIS": 2780,
      "adua": 2781,
      "ames": 2782,
      "ighb": 2783,
      "read": 2784,
      "rupt": 2785,
      "▁Bel": 2786,
      "▁Men": 2787,
      "▁Out": 2788,
      "▁fam": 2789,
      "▁hap": 2790,
      "▁med": 2791,
      "▁mod": 2792,
      "▁nob": 2793,
      "▁sho": 2794,
      "▁unc": 2795,
      "▁unk": 2796,
      "▁won": 2797,
      "ended": 2798,
      "eness": 2799,
      "fully": 2800,
      "remio": 2801,
      "rumio": 2802,
      "▁Mist": 2803,
      "▁blow": 2804,
      "▁doom": 2805,
      "▁fled": 2806,
      "▁list": 2807,
      "▁neck": 2808,
      "▁sole": 2809,
      "▁year": 2810,
      "▁PARIS": 2811,
      "▁Padua": 2812,
      "▁Watch": 2813,
      "▁While": 2814,
      "▁ignor": 2815,
      "▁march": 2816,
      "▁needs": 2817,
      "▁reign": 2818,
      "▁sense": 2819,
      "▁shows": 2820,
      "antagen": 2821,
      "itizens": 2822,
      "osition": 2823,
      "▁Gremio": 2824,
      "▁Grumio": 2825,
      "▁behind": 2826,
      "▁clouds": 2827,
      "▁contin": 2828,
      "▁encoun": 2829,
      "▁forbid": 2830,
      "▁govern": 2831,
      "▁ladies": 2832,
      "▁letter": 2833,
      "▁second": 2834,
      "▁speaks": 2835,
      "▁English": 2836,
      "▁because": 2837,
      "▁breathe": 2838,
      "▁condemn": 2839,
      "▁letters": 2840,
      "▁liberty": 2841,
      "▁measure": 2842,
      "▁trouble": 2843,
      "▁wouldst": 2844,
      "▁prisoner": 2845,
      "▁sentence": 2846,
      "▁shepherd": 2847,
      "▁Plantagen": 2848,
      "▁dishonour": 2849,
      "▁ourselves": 2850,
      "▁banishment": 2851,
      ":'": 2852,
      "▁X": 2853,
      "dle": 2854,
      "ize": 2855,
      "oor": 2856,
      "oss": 2857,
      "rue": 2858,
      "vel": 2859,
      "acle": 2860,
      "aves": 2861,
      "ider": 2862,
      "iles": 2863,
      "rous": 2864,
      "ster": 2865,
      "▁Ant": 2866,
      "▁Hea": 2867,
      "▁Int": 2868,
      "▁Too": 2869,
      "▁big": 2870,
      "▁cru": 2871,
      "▁dog": 2872,
      "▁dry": 2873,
      "▁lan": 2874,
      "▁mut": 2875,
      "▁oft": 2876,
      "▁pet": 2877,
      "▁ref": 2878,
      "aring": 2879,
      "ators": 2880,
      "ndred": 2881,
      "▁Fear": 2882,
      "▁five": 2883,
      "▁held": 2884,
      "▁join": 2885,
      "▁laid": 2886,
      "▁note": 2887,
      "▁obey": 2888,
      "▁seat": 2889,
      "▁sort": 2890,
      "▁stor": 2891,
      "▁temp": 2892,
      "▁vain": 2893,
      "▁womb": 2894,
      "▁Gaunt": 2895,
      "▁PETER": 2896,
      "▁above": 2897,
      "▁aside": 2898,
      "▁bones": 2899,
      "▁drunk": 2900,
      "▁fresh": 2901,
      "▁grand": 2902,
      "▁lived": 2903,
      "▁noise": 2904,
      "▁piece": 2905,
      "▁rough": 2906,
      "▁steal": 2907,
      "▁Sirrah": 2908,
      "▁appare": 2909,
      "▁choose": 2910,
      "▁golden": 2911,
      "▁longer": 2912,
      "▁morrow": 2913,
      "▁remain": 2914,
      "▁hundred": 2915,
      "▁prosper": 2916,
      "▁victory": 2917,
      "▁dispatch": 2918,
      "▁proclaim": 2919,
      "▁conscience": 2920,
      "▁Plantagenet": 2921,
      "bb": 2922,
      "hn": 2923,
      "ny": 2924,
      "ts": 2925,
      "!--": 2926,
      "ART": 2927,
      "WIS": 2928,
      "ban": 2929,
      "ety": 2930,
      "ieu": 2931,
      "ott": 2932,
      "rim": 2933,
      "set": 2934,
      "ume": 2935,
      "vey": 2936,
      "▁En": 2937,
      "▁Fa": 2938,
      "▁Me": 2939,
      "▁Sc": 2940,
      "▁XI": 2941,
      "▁ef": 2942,
      "RIEL": 2943,
      "ceit": 2944,
      "erle": 2945,
      "iled": 2946,
      "ular": 2947,
      "ulet": 2948,
      "▁DOR": 2949,
      "▁Per": 2950,
      "▁exc": 2951,
      "▁ind": 2952,
      "▁lau": 2953,
      "▁len": 2954,
      "▁low": 2955,
      "▁saf": 2956,
      "▁sch": 2957,
      "▁sto": 2958,
      "▁sus": 2959,
      "asion": 2960,
      "inius": 2961,
      "lease": 2962,
      "ounds": 2963,
      "posed": 2964,
      "uthor": 2965,
      "▁Earl": 2966,
      "▁Hear": 2967,
      "▁LART": 2968,
      "▁Unto": 2969,
      "▁bend": 2970,
      "▁fine": 2971,
      "▁lust": 2972,
      "▁obed": 2973,
      "▁purs": 2974,
      "▁shed": 2975,
      "▁tent": 2976,
      "▁warm": 2977,
      "▁woes": 2978,
      "atesby": 2979,
      "icious": 2980,
      "▁ARIEL": 2981,
      "▁Could": 2982,
      "▁LEWIS": 2983,
      "▁bears": 2984,
      "▁broke": 2985,
      "▁conqu": 2986,
      "▁doing": 2987,
      "▁drown": 2988,
      "▁glory": 2989,
      "▁knees": 2990,
      "▁lands": 2991,
      "▁pride": 2992,
      "▁saint": 2993,
      "▁stain": 2994,
      "▁steel": 2995,
      "▁stood": 2996,
      "▁swift": 2997,
      "▁venge": 2998,
      "▁double": 2999,
      "▁effect": 3000,
      "▁forgot": 3001,
      "▁labour": 3002,
      "▁revere": 3003,
      "▁threat": 3004,
      "▁wisdom": 3005,
      "▁Capulet": 3006,
      "▁Catesby": 3007,
      "▁LARTIUS": 3008,
      "▁blessed": 3009,
      "▁counter": 3010,
      "▁despair": 3011,
      "▁kinsman": 3012,
      "▁slander": 3013,
      "▁towards": 3014,
      "▁Watchman": 3015,
      "▁citizens": 3016,
      "▁precious": 3017,
      "▁desperate": 3018,
      "▁encounter": 3019,
      "▁entertain": 3020,
      "▁knowledge": 3021,
      "▁yourselves": 3022,
      ";'": 3023,
      "AMP": 3024,
      "TIS": 3025,
      "ang": 3026,
      "irl": 3027,
      "owb": 3028,
      "ude": 3029,
      "uff": 3030,
      "▁fe": 3031,
      "cted": 3032,
      "ease": 3033,
      "iful": 3034,
      "rent": 3035,
      "vail": 3036,
      "▁Aum": 3037,
      "▁CUR": 3038,
      "▁Dis": 3039,
      "▁Fri": 3040,
      "▁Ver": 3041,
      "▁eld": 3042,
      "▁fat": 3043,
      "▁few": 3044,
      "▁fru": 3045,
      "▁pun": 3046,
      "▁ran": 3047,
      "▁uns": 3048,
      "eterm": 3049,
      "gment": 3050,
      "iance": 3051,
      "ility": 3052,
      "itors": 3053,
      "rence": 3054,
      "▁Cons": 3055,
      "▁John": 3056,
      "▁Mowb": 3057,
      "▁SAMP": 3058,
      "▁abro": 3059,
      "▁army": 3060,
      "▁capt": 3061,
      "▁corn": 3062,
      "▁died": 3063,
      "▁foll": 3064,
      "▁hair": 3065,
      "▁kept": 3066,
      "▁seal": 3067,
      "▁sour": 3068,
      "▁stud": 3069,
      "ations": 3070,
      "estion": 3071,
      "ointed": 3072,
      "ontent": 3073,
      "▁alive": 3074,
      "▁const": 3075,
      "▁contr": 3076,
      "▁dance": 3077,
      "▁enjoy": 3078,
      "▁guess": 3079,
      "▁guest": 3080,
      "▁money": 3081,
      "▁mount": 3082,
      "▁plant": 3083,
      "▁quoth": 3084,
      "▁remed": 3085,
      "▁sever": 3086,
      "▁white": 3087,
      "▁CURTIS": 3088,
      "▁Keeper": 3089,
      "▁Pedant": 3090,
      "▁Within": 3091,
      "▁author": 3092,
      "▁beggar": 3093,
      "▁cheeks": 3094,
      "▁deadly": 3095,
      "▁determ": 3096,
      "▁fought": 3097,
      "▁health": 3098,
      "▁manner": 3099,
      "▁struck": 3100,
      "▁Aumerle": 3101,
      "▁Mowbray": 3102,
      "▁SAMPSON": 3103,
      "▁bastard": 3104,
      "▁flowers": 3105,
      "▁honours": 3106,
      "▁masters": 3107,
      "▁lordship": 3108,
      "▁methinks": 3109,
      "▁promised": 3110,
      "▁wretched": 3111,
      "▁understand": 3112,
      "BU": 3113,
      "ne": 3114,
      ":--": 3115,
      "GON": 3116,
      "LEY": 3117,
      "ash": 3118,
      "den": 3119,
      "ief": 3120,
      "mit": 3121,
      "ppy": 3122,
      "tle": 3123,
      "▁EX": 3124,
      "▁Fl": 3125,
      "▁Ne": 3126,
      "BURY": 3127,
      "bury": 3128,
      "ewis": 3129,
      "head": 3130,
      "ited": 3131,
      "osed": 3132,
      "reed": 3133,
      "utio": 3134,
      "ways": 3135,
      "▁Put": 3136,
      "▁aid": 3137,
      "▁deg": 3138,
      "▁pal": 3139,
      "▁rot": 3140,
      "▁sim": 3141,
      "▁try": 3142,
      "GONUS": 3143,
      "ament": 3144,
      "ounce": 3145,
      "▁ANTI": 3146,
      "▁Mine": 3147,
      "▁Poor": 3148,
      "▁cred": 3149,
      "▁gent": 3150,
      "▁prov": 3151,
      "orious": 3152,
      "▁Lewis": 3153,
      "▁among": 3154,
      "▁calls": 3155,
      "▁cried": 3156,
      "▁cruel": 3157,
      "▁early": 3158,
      "▁going": 3159,
      "▁greet": 3160,
      "▁guard": 3161,
      "▁judge": 3162,
      "▁liest": 3163,
      "▁moved": 3164,
      "▁seven": 3165,
      "▁shake": 3166,
      "▁spent": 3167,
      "▁stars": 3168,
      "▁teach": 3169,
      "▁truly": 3170,
      "▁Either": 3171,
      "▁Heaven": 3172,
      "▁Pardon": 3173,
      "▁demand": 3174,
      "▁dreams": 3175,
      "▁extrem": 3176,
      "▁humble": 3177,
      "▁neighb": 3178,
      "▁priest": 3179,
      "▁scarce": 3180,
      "▁summer": 3181,
      "▁valour": 3182,
      "▁wretch": 3183,
      "▁account": 3184,
      "▁charity": 3185,
      "▁foolish": 3186,
      "▁herself": 3187,
      "▁kindred": 3188,
      "▁officer": 3189,
      "▁triumph": 3190,
      "▁whether": 3191,
      "▁Citizens": 3192,
      "▁Mercutio": 3193,
      "▁brothers": 3194,
      "▁ANTIGONUS": 3195,
      "▁honourable": 3196,
      "BR": 3197,
      "lp": 3198,
      "ATC": 3199,
      "BRA": 3200,
      "ask": 3201,
      "iew": 3202,
      "ify": 3203,
      "pir": 3204,
      "roy": 3205,
      "▁ba": 3206,
      "▁ga": 3207,
      "Twas": 3208,
      "ians": 3209,
      "ites": 3210,
      "leep": 3211,
      "mble": 3212,
      "▁Bet": 3213,
      "▁Bid": 3214,
      "▁add": 3215,
      "▁cir": 3216,
      "▁din": 3217,
      "▁rid": 3218,
      "▁unf": 3219,
      "▁yea": 3220,
      "arted": 3221,
      "ating": 3222,
      "house": 3223,
      "ining": 3224,
      "orthy": 3225,
      "under": 3226,
      "▁Made": 3227,
      "▁Mars": 3228,
      "▁Once": 3229,
      "▁RATC": 3230,
      "▁anon": 3231,
      "▁beha": 3232,
      "▁bids": 3233,
      "▁dism": 3234,
      "▁ease": 3235,
      "▁envy": 3236,
      "▁fart": 3237,
      "▁hung": 3238,
      "▁idle": 3239,
      "▁imag": 3240,
      "▁ours": 3241,
      "▁pack": 3242,
      "▁rise": 3243,
      "▁thro": 3244,
      "▁view": 3245,
      "▁wail": 3246,
      "though": 3247,
      "▁Alack": 3248,
      "▁Faith": 3249,
      "▁Harry": 3250,
      "▁Music": 3251,
      "▁Never": 3252,
      "▁benef": 3253,
      "▁blame": 3254,
      "▁chast": 3255,
      "▁crave": 3256,
      "▁dwell": 3257,
      "▁faint": 3258,
      "▁faire": 3259,
      "▁force": 3260,
      "▁glass": 3261,
      "▁laugh": 3262,
      "▁miser": 3263,
      "▁month": 3264,
      "▁party": 3265,
      "▁stone": 3266,
      "▁subst": 3267,
      "▁trial": 3268,
      "▁walls": 3269,
      "▁weary": 3270,
      "▁abroad": 3271,
      "▁bright": 3272,
      "▁custom": 3273,
      "▁malice": 3274,
      "▁others": 3275,
      "▁thinks": 3276,
      "▁winter": 3277,
      "▁Volsces": 3278,
      "▁butcher": 3279,
      "▁fellows": 3280,
      "▁private": 3281,
      "▁provost": 3282,
      "▁thereof": 3283,
      "▁Cominius": 3284,
      "▁RATCLIFF": 3285,
      "▁kindness": 3286,
      "▁minister": 3287,
      "▁condition": 3288,
      "▁satisfied": 3289,
      "▁vengeance": 3290,
      "▁wherefore": 3291,
      "ALT": 3292,
      "HOP": 3293,
      "amp": 3294,
      "ope": 3295,
      "BALT": 3296,
      "cell": 3297,
      "enes": 3298,
      "lock": 3299,
      "ners": 3300,
      "omas": 3301,
      "rees": 3302,
      "scal": 3303,
      "vell": 3304,
      "with": 3305,
      "▁Des": 3306,
      "▁Fie": 3307,
      "▁Rut": 3308,
      "▁Vin": 3309,
      "▁bef": 3310,
      "▁env": 3311,
      "▁god": 3312,
      "▁hol": 3313,
      "▁rel": 3314,
      "▁smo": 3315,
      "▁unb": 3316,
      "▁unl": 3317,
      "▁unp": 3318,
      "▁ver": 3319,
      "▁wag": 3320,
      "▁wre": 3321,
      "ANLEY": 3322,
      "ISHOP": 3323,
      "ailor": 3324,
      "allow": 3325,
      "antua": 3326,
      "eless": 3327,
      "icked": 3328,
      "ident": 3329,
      "orous": 3330,
      "rench": 3331,
      "▁Barn": 3332,
      "▁Show": 3333,
      "▁True": 3334,
      "▁acqu": 3335,
      "▁arri": 3336,
      "▁bite": 3337,
      "▁boot": 3338,
      "▁deal": 3339,
      "▁dull": 3340,
      "▁easy": 3341,
      "▁evil": 3342,
      "▁firm": 3343,
      "▁foes": 3344,
      "▁gown": 3345,
      "▁incl": 3346,
      "▁lest": 3347,
      "▁meat": 3348,
      "▁root": 3349,
      "▁vice": 3350,
      "▁vile": 3351,
      "▁After": 3352,
      "▁Hence": 3353,
      "▁Lords": 3354,
      "▁Peter": 3355,
      "▁Under": 3356,
      "▁blind": 3357,
      "▁concl": 3358,
      "▁corse": 3359,
      "▁cover": 3360,
      "▁fruit": 3361,
      "▁mayst": 3362,
      "▁quite": 3363,
      "▁shore": 3364,
      "▁shrew": 3365,
      "▁sport": 3366,
      "▁wench": 3367,
      "▁Mantua": 3368,
      "▁Please": 3369,
      "▁TYBALT": 3370,
      "▁Thomas": 3371,
      "▁Whilst": 3372,
      "▁afford": 3373,
      "▁convey": 3374,
      "▁deputy": 3375,
      "▁excuse": 3376,
      "▁flower": 3377,
      "▁former": 3378,
      "▁humour": 3379,
      "▁prophe": 3380,
      "▁school": 3381,
      "▁swords": 3382,
      "▁tyrant": 3383,
      "▁Corioli": 3384,
      "▁Paulina": 3385,
      "▁Rutland": 3386,
      "▁STANLEY": 3387,
      "▁changed": 3388,
      "▁counten": 3389,
      "▁honesty": 3390,
      "▁tongues": 3391,
      "▁Methinks": 3392,
      "▁judgment": 3393,
      "▁question": 3394,
      "▁received": 3395,
      "▁Vincentio": 3396,
      "'?": 3397,
      "AK": 3398,
      "ek": 3399,
      "AND": 3400,
      "HOM": 3401,
      "ead": 3402,
      "llo": 3403,
      "she": 3404,
      "und": 3405,
      "▁Lo": 3406,
      "AKEN": 3407,
      "aper": 3408,
      "azed": 3409,
      "ered": 3410,
      "ilia": 3411,
      "omer": 3412,
      "ract": 3413,
      "rate": 3414,
      "rift": 3415,
      "roth": 3416,
      "vish": 3417,
      "▁Art": 3418,
      "▁Ind": 3419,
      "▁Sic": 3420,
      "▁Tut": 3421,
      "▁spe": 3422,
      "HOMAS": 3423,
      "acher": 3424,
      "anley": 3425,
      "arden": 3426,
      "cians": 3427,
      "ement": 3428,
      "rison": 3429,
      "twixt": 3430,
      "ursed": 3431,
      "woman": 3432,
      "▁Dost": 3433,
      "▁Jove": 3434,
      "▁Love": 3435,
      "▁Wilt": 3436,
      "▁brow": 3437,
      "▁circ": 3438,
      "▁cure": 3439,
      "▁disg": 3440,
      "▁door": 3441,
      "▁dust": 3442,
      "▁fain": 3443,
      "▁feed": 3444,
      "▁gift": 3445,
      "▁girl": 3446,
      "▁leng": 3447,
      "▁nose": 3448,
      "▁stab": 3449,
      "▁stop": 3450,
      "ealous": 3451,
      "idings": 3452,
      "▁Caius": 3453,
      "▁Death": 3454,
      "▁Friar": 3455,
      "▁blest": 3456,
      "▁brows": 3457,
      "▁fiery": 3458,
      "▁ghost": 3459,
      "▁green": 3460,
      "▁gross": 3461,
      "▁grown": 3462,
      "▁joint": 3463,
      "▁knave": 3464,
      "▁pains": 3465,
      "▁proof": 3466,
      "▁sheep": 3467,
      "▁spake": 3468,
      "▁stoop": 3469,
      "▁taken": 3470,
      "▁twice": 3471,
      "▁tyran": 3472,
      "▁BRAKEN": 3473,
      "▁Prince": 3474,
      "▁THOMAS": 3475,
      "▁Verona": 3476,
      "▁affair": 3477,
      "▁always": 3478,
      "▁buried": 3479,
      "▁choice": 3480,
      "▁divine": 3481,
      "▁finger": 3482,
      "▁import": 3483,
      "▁leaves": 3484,
      "▁necess": 3485,
      "▁remedy": 3486,
      "▁repent": 3487,
      "▁sacred": 3488,
      "▁safety": 3489,
      "▁senate": 3490,
      "▁sirrah": 3491,
      "▁spring": 3492,
      "▁undert": 3493,
      "▁whilst": 3494,
      "▁wicked": 3495,
      "▁wither": 3496,
      "▁wrongs": 3497,
      "▁Besides": 3498,
      "▁Brother": 3499,
      "▁Stanley": 3500,
      "▁embrace": 3501,
      "▁prevail": 3502,
      "▁prevent": 3503,
      "▁reasons": 3504,
      "▁silence": 3505,
      "▁therein": 3506,
      "▁thunder": 3507,
      "▁Mistress": 3508,
      "▁creature": 3509,
      "▁innocent": 3510,
      "▁occasion": 3511,
      "▁perceive": 3512,
      "▁traitors": 3513,
      "▁BRAKENBURY": 3514,
      "?'": 3515,
      "jo": 3516,
      "mn": 3517,
      "sp": 3518,
      "GOR": 3519,
      "ONE": 3520,
      "STR": 3521,
      "eld": 3522,
      "hys": 3523,
      "loy": 3524,
      "nat": 3525,
      "oly": 3526,
      "omp": 3527,
      "pin": 3528,
      "shi": 3529,
      "▁AE": 3530,
      "▁OV": 3531,
      "▁ed": 3532,
      "▁es": 3533,
      "ERBY": 3534,
      "GORY": 3535,
      "aced": 3536,
      "anch": 3537,
      "aste": 3538,
      "ault": 3539,
      "elve": 3540,
      "hant": 3541,
      "itol": 3542,
      "oard": 3543,
      "orry": 3544,
      "unts": 3545,
      "▁Apo": 3546,
      "▁avo": 3547,
      "▁cre": 3548,
      "▁dec": 3549,
      "▁eag": 3550,
      "▁ele": 3551,
      "▁emp": 3552,
      "▁lar": 3553,
      "▁rob": 3554,
      "▁shr": 3555,
      "ctise": 3556,
      "enius": 3557,
      "hysic": 3558,
      "inous": 3559,
      "▁Turn": 3560,
      "▁bark": 3561,
      "▁drop": 3562,
      "▁empt": 3563,
      "▁fury": 3564,
      "▁rock": 3565,
      "▁rude": 3566,
      "▁sail": 3567,
      "▁shar": 3568,
      "▁ship": 3569,
      "▁sits": 3570,
      "▁used": 3571,
      "▁went": 3572,
      "ERDONE": 3573,
      "STRESS": 3574,
      "ardine": 3575,
      "edious": 3576,
      "othing": 3577,
      "unning": 3578,
      "▁DERBY": 3579,
      "▁Somer": 3580,
      "▁adieu": 3581,
      "▁allow": 3582,
      "▁anger": 3583,
      "▁belly": 3584,
      "▁cares": 3585,
      "▁cheek": 3586,
      "▁claim": 3587,
      "▁condu": 3588,
      "▁drawn": 3589,
      "▁fares": 3590,
      "▁langu": 3591,
      "▁loath": 3592,
      "▁loyal": 3593,
      "▁maids": 3594,
      "▁mayor": 3595,
      "▁plead": 3596,
      "▁round": 3597,
      "▁smile": 3598,
      "▁tempt": 3599,
      "▁troth": 3600,
      "▁utter": 3601,
      "▁weeds": 3602,
      "▁wings": 3603,
      "▁Having": 3604,
      "▁Indeed": 3605,
      "▁Myself": 3606,
      "▁assist": 3607,
      "▁broken": 3608,
      "▁design": 3609,
      "▁fright": 3610,
      "▁garden": 3611,
      "▁hollow": 3612,
      "▁inform": 3613,
      "▁knight": 3614,
      "▁oracle": 3615,
      "▁plague": 3616,
      "▁prayer": 3617,
      "▁renown": 3618,
      "▁rotten": 3619,
      "▁stones": 3620,
      "▁wanton": 3621,
      "aughters": 3622,
      "▁Capitol": 3623,
      "▁GREGORY": 3624,
      "▁Prithee": 3625,
      "▁Wherein": 3626,
      "▁Without": 3627,
      "▁absence": 3628,
      "▁commend": 3629,
      "▁delight": 3630,
      "▁deserve": 3631,
      "▁despite": 3632,
      "▁profess": 3633,
      "▁violent": 3634,
      "▁wherein": 3635,
      "▁MISTRESS": 3636,
      "▁Menenius": 3637,
      "▁OVERDONE": 3638,
      "▁Somerset": 3639,
      "▁deceived": 3640,
      "▁ignorant": 3641,
      "▁imprison": 3642,
      "▁practise": 3643,
      "▁treacher": 3644,
      "▁trumpets": 3645,
      "▁Barnardine": 3646,
      "▁countenance": 3647,
      "XF": 3648,
      "MON": 3649,
      "act": 3650,
      "aze": 3651,
      "cha": 3652,
      "esy": 3653,
      "isa": 3654,
      "mon": 3655,
      "pet": 3656,
      "ALER": 3657,
      "MOND": 3658,
      "ards": 3659,
      "ashi": 3660,
      "cend": 3661,
      "draw": 3662,
      "eeth": 3663,
      "eous": 3664,
      "haps": 3665,
      "held": 3666,
      "ione": 3667,
      "ises": 3668,
      "ongs": 3669,
      "othe": 3670,
      "rand": 3671,
      "rehe": 3672,
      "semb": 3673,
      "utes": 3674,
      "▁Lea": 3675,
      "▁OXF": 3676,
      "▁Pol": 3677,
      "▁Pre": 3678,
      "▁Res": 3679,
      "▁SOM": 3680,
      "▁Sha": 3681,
      "▁aim": 3682,
      "▁amb": 3683,
      "▁det": 3684,
      "▁dew": 3685,
      "▁due": 3686,
      "▁dur": 3687,
      "▁hid": 3688,
      "▁hit": 3689,
      "▁pil": 3690,
      "▁pin": 3691,
      "▁six": 3692,
      "ERSET": 3693,
      "iment": 3694,
      "mione": 3695,
      "rious": 3696,
      "▁Grey": 3697,
      "▁Into": 3698,
      "▁Know": 3699,
      "▁Mark": 3700,
      "▁Pisa": 3701,
      "▁alas": 3702,
      "▁babe": 3703,
      "▁ball": 3704,
      "▁cell": 3705,
      "▁earn": 3706,
      "▁gain": 3707,
      "▁heav": 3708,
      "▁lamb": 3709,
      "▁loud": 3710,
      "▁nine": 3711,
      "▁ones": 3712,
      "▁pair": 3713,
      "▁pawn": 3714,
      "▁publ": 3715,
      "▁ruin": 3716,
      "▁sens": 3717,
      "▁star": 3718,
      "▁stat": 3719,
      "▁tune": 3720,
      "▁wont": 3721,
      "ALERIA": 3722,
      "change": 3723,
      "ission": 3724,
      "itting": 3725,
      "pinion": 3726,
      "ursday": 3727,
      "▁Great": 3728,
      "▁Three": 3729,
      "▁aught": 3730,
      "▁awake": 3731,
      "▁borne": 3732,
      "▁carry": 3733,
      "▁chief": 3734,
      "▁cries": 3735,
      "▁deare": 3736,
      "▁fatal": 3737,
      "▁fools": 3738,
      "▁gives": 3739,
      "▁names": 3740,
      "▁persu": 3741,
      "▁sighs": 3742,
      "▁steed": 3743,
      "▁stock": 3744,
      "▁storm": 3745,
      "▁stuff": 3746,
      "▁tread": 3747,
      "▁whole": 3748,
      "▁wives": 3749,
      "▁woful": 3750,
      "onounce": 3751,
      "▁Apollo": 3752,
      "▁Cousin": 3753,
      "▁OXFORD": 3754,
      "▁Rivers": 3755,
      "▁advise": 3756,
      "▁asleep": 3757,
      "▁begins": 3758,
      "▁castle": 3759,
      "▁colour": 3760,
      "▁damned": 3761,
      "▁devise": 3762,
      "▁excell": 3763,
      "▁infect": 3764,
      "▁motion": 3765,
      "▁nobles": 3766,
      "▁number": 3767,
      "▁offend": 3768,
      "▁proper": 3769,
      "▁rememb": 3770,
      "▁resign": 3771,
      "▁simple": 3772,
      "▁supper": 3773,
      "▁thrive": 3774,
      "▁throat": 3775,
      "▁thrust": 3776,
      "▁undone": 3777,
      "ethought": 3778,
      "▁VALERIA": 3779,
      "▁affairs": 3780,
      "▁becomes": 3781,
      "▁benefit": 3782,
      "▁burthen": 3783,
      "▁deposed": 3784,
      "▁envious": 3785,
      "▁express": 3786,
      "▁farther": 3787,
      "▁follows": 3788,
      "▁hanging": 3789,
      "▁jealous": 3790,
      "▁meaning": 3791,
      "▁outward": 3792,
      "▁passing": 3793,
      "▁pleased": 3794,
      "▁protect": 3795,
      "▁receive": 3796,
      "▁tedious": 3797,
      "▁tidings": 3798,
      "▁vantage": 3799,
      "▁Hermione": 3800,
      "▁Musician": 3801,
      "▁RICHMOND": 3802,
      "▁SOMERSET": 3803,
      "▁Thursday": 3804,
      "▁banished": 3805,
      "▁dreadful": 3806,
      "▁garments": 3807,
      "▁possible": 3808,
      "▁prepared": 3809,
      "▁shouldst": 3810,
      "▁Christian": 3811,
      "▁authority": 3812,
      "▁followers": 3813,
      "▁disposition": 3814,
      "BH": 3815,
      "HY": 3816,
      "SA": 3817,
      "eg": 3818,
      "go": 3819,
      "ub": 3820,
      "ene": 3821,
      "enn": 3822,
      "gle": 3823,
      "hop": 3824,
      "rib": 3825,
      "ron": 3826,
      "run": 3827,
      "thi": 3828,
      "▁Bi": 3829,
      "▁er": 3830,
      "▁ir": 3831,
      "BHOR": 3832,
      "BRAY": 3833,
      "ETER": 3834,
      "LIUS": 3835,
      "OPSA": 3836,
      "USHY": 3837,
      "anct": 3838,
      "ancy": 3839,
      "arch": 3840,
      "ared": 3841,
      "atsw": 3842,
      "cing": 3843,
      "ello": 3844,
      "iffe": 3845,
      "ills": 3846,
      "ldom": 3847,
      "ords": 3848,
      "room": 3849,
      "yard": 3850,
      "yond": 3851,
      "▁Boy": 3852,
      "▁Has": 3853,
      "▁MOW": 3854,
      "▁bew": 3855,
      "▁cal": 3856,
      "▁cam": 3857,
      "▁equ": 3858,
      "▁lip": 3859,
      "▁lod": 3860,
      "▁owe": 3861,
      "▁sup": 3862,
      "▁top": 3863,
      "▁van": 3864,
      "after": 3865,
      "eding": 3866,
      "ellow": 3867,
      "erved": 3868,
      "imely": 3869,
      "itude": 3870,
      "loved": 3871,
      "orses": 3872,
      "ounty": 3873,
      "ouses": 3874,
      "place": 3875,
      "usion": 3876,
      "▁Bona": 3877,
      "▁Help": 3878,
      "▁Very": 3879,
      "▁ange": 3880,
      "▁band": 3881,
      "▁bond": 3882,
      "▁cens": 3883,
      "▁conj": 3884,
      "▁disd": 3885,
      "▁drum": 3886,
      "▁gage": 3887,
      "▁hurt": 3888,
      "▁lean": 3889,
      "▁legs": 3890,
      "▁lend": 3891,
      "▁prey": 3892,
      "▁quit": 3893,
      "▁rash": 3894,
      "▁room": 3895,
      "▁seas": 3896,
      "▁shut": 3897,
      "▁step": 3898,
      "▁sway": 3899,
      "▁tort": 3900,
      "▁weap": 3901,
      "▁wine": 3902,
      "enture": 3903,
      "illing": 3904,
      "iteous": 3905,
      "ixenes": 3906,
      "ortion": 3907,
      "▁ABHOR": 3908,
      "▁BUSHY": 3909,
      "▁Biond": 3910,
      "▁Leave": 3911,
      "▁MAMIL": 3912,
      "▁MOPSA": 3913,
      "▁Still": 3914,
      "▁accus": 3915,
      "▁brook": 3916,
      "▁chair": 3917,
      "▁clear": 3918,
      "▁crack": 3919,
      "▁curst": 3920,
      "▁delay": 3921,
      "▁empty": 3922,
      "▁exile": 3923,
      "▁keeps": 3924,
      "▁mourn": 3925,
      "▁paper": 3926,
      "▁parts": 3927,
      "▁penit": 3928,
      "▁peril": 3929,
      "▁prize": 3930,
      "▁sanct": 3931,
      "▁sorry": 3932,
      "▁speci": 3933,
      "▁spend": 3934,
      "▁store": 3935,
      "▁taste": 3936,
      "▁teeth": 3937,
      "▁trans": 3938,
      "▁unnat": 3939,
      "▁until": 3940,
      "▁wrath": 3941,
      "atswain": 3942,
      "utation": 3943,
      "▁EXETER": 3944,
      "▁Tailor": 3945,
      "▁accept": 3946,
      "▁access": 3947,
      "▁accuse": 3948,
      "▁affect": 3949,
      "▁beheld": 3950,
      "▁belike": 3951,
      "▁circum": 3952,
      "▁denied": 3953,
      "▁desert": 3954,
      "▁dinner": 3955,
      "▁flight": 3956,
      "▁humbly": 3957,
      "▁intend": 3958,
      "▁kingly": 3959,
      "▁palace": 3960,
      "▁partic": 3961,
      "▁perish": 3962,
      "▁physic": 3963,
      "▁punish": 3964,
      "▁shadow": 3965,
      "▁silver": 3966,
      "▁solemn": 3967,
      "▁twelve": 3968,
      "▁wander": 3969,
      "▁weight": 3970,
      "▁Believe": 3971,
      "▁MOWBRAY": 3972,
      "▁Officer": 3973,
      "▁betwixt": 3974,
      "▁conquer": 3975,
      "▁corrupt": 3976,
      "▁cunning": 3977,
      "▁perfect": 3978,
      "▁protest": 3979,
      "▁resolve": 3980,
      "▁several": 3981,
      "▁spirits": 3982,
      "▁wedding": 3983,
      "▁whither": 3984,
      "▁ABHORSON": 3985,
      "▁continue": 3986,
      "▁contrary": 3987,
      "▁courtesy": 3988,
      "▁forsworn": 3989,
      "▁goodness": 3990,
      "▁murderer": 3991,
      "▁petition": 3992,
      "▁pleasant": 3993,
      "▁resolved": 3994,
      "▁threaten": 3995,
      "▁Biondello": 3996,
      "▁MAMILLIUS": 3997,
      "▁Polixenes": 3998,
      "▁advantage": 3999,
      "▁daughters": 4000,
      "▁miserable": 4001,
      "▁neighbour": 4002,
      "▁gentlewoman": 4003,
      "CH": 4004,
      "af": 4005,
      "dy": 4006,
      "rt": 4007,
      "RCH": 4008,
      "aff": 4009,
      "ane": 4010,
      "cio": 4011,
      "ept": 4012,
      "irg": 4013,
      "oke": 4014,
      "oot": 4015,
      "ote": 4016,
      "pic": 4017,
      "que": 4018,
      "ung": 4019,
      "▁Co": 4020,
      "▁di": 4021,
      "▁pi": 4022,
      "ALTH": 4023,
      "ASAR": 4024,
      "ERCY": 4025,
      "amed": 4026,
      "cape": 4027,
      "cian": 4028,
      "ency": 4029,
      "erve": 4030,
      "mity": 4031,
      "oler": 4032,
      "outs": 4033,
      "ping": 4034,
      "sequ": 4035,
      "sing": 4036,
      "uted": 4037,
      "▁AEd": 4038,
      "▁Nap": 4039,
      "▁Rep": 4040,
      "▁Two": 4041,
      "▁ado": 4042,
      "▁arg": 4043,
      "▁bas": 4044,
      "▁bud": 4045,
      "▁clo": 4046,
      "▁cup": 4047,
      "▁dag": 4048,
      "▁fee": 4049,
      "▁fle": 4050,
      "▁fro": 4051,
      "▁sep": 4052,
      "▁tut": 4053,
      "▁wol": 4054,
      "▁wot": 4055,
      "aries": 4056,
      "clock": 4057,
      "ising": 4058,
      "kedom": 4059,
      "pping": 4060,
      "rease": 4061,
      "umble": 4062,
      "▁ARCH": 4063,
      "▁Bear": 4064,
      "▁None": 4065,
      "▁Only": 4066,
      "▁amen": 4067,
      "▁calm": 4068,
      "▁comb": 4069,
      "▁debt": 4070,
      "▁dies": 4071,
      "▁dign": 4072,
      "▁diss": 4073,
      "▁ends": 4074,
      "▁fail": 4075,
      "▁gate": 4076,
      "▁hark": 4077,
      "▁heed": 4078,
      "▁hunt": 4079,
      "▁joys": 4080,
      "▁mend": 4081,
      "▁miss": 4082,
      "▁plot": 4083,
      "▁pure": 4084,
      "▁rose": 4085,
      "▁slow": 4086,
      "▁tomb": 4087,
      "▁ways": 4088,
      "▁wits": 4089,
      "▁wond": 4090,
      "▁wood": 4091,
      "igence": 4092,
      "lesome": 4093,
      "ourish": 4094,
      "picion": 4095,
      "urance": 4096,
      "urious": 4097,
      "ustice": 4098,
      "▁BALTH": 4099,
      "▁Mayor": 4100,
      "▁Might": 4101,
      "▁PERCY": 4102,
      "▁Right": 4103,
      "▁chide": 4104,
      "▁dares": 4105,
      "▁durst": 4106,
      "▁faces": 4107,
      "▁fashi": 4108,
      "▁folly": 4109,
      "▁griev": 4110,
      "▁groan": 4111,
      "▁hopes": 4112,
      "▁large": 4113,
      "▁naked": 4114,
      "▁scept": 4115,
      "▁seest": 4116,
      "▁sharp": 4117,
      "▁spare": 4118,
      "▁story": 4119,
      "▁table": 4120,
      "▁tremb": 4121,
      "▁turns": 4122,
      "▁weigh": 4123,
      "▁whore": 4124,
      "▁wreck": 4125,
      "hearted": 4126,
      "▁BISHOP": 4127,
      "▁Father": 4128,
      "▁French": 4129,
      "▁beyond": 4130,
      "▁bodies": 4131,
      "▁called": 4132,
      "▁comple": 4133,
      "▁credit": 4134,
      "▁crowns": 4135,
      "▁cursed": 4136,
      "▁curses": 4137,
      "▁employ": 4138,
      "▁endure": 4139,
      "▁expect": 4140,
      "▁fairly": 4141,
      "▁hatred": 4142,
      "▁horses": 4143,
      "▁intent": 4144,
      "▁joyful": 4145,
      "▁making": 4146,
      "▁market": 4147,
      "▁misery": 4148,
      "▁perpet": 4149,
      "▁public": 4150,
      "▁quench": 4151,
      "▁reward": 4152,
      "▁seeing": 4153,
      "▁spoken": 4154,
      "▁temper": 4155,
      "▁terror": 4156,
      "▁theirs": 4157,
      "▁waters": 4158,
      "▁whiles": 4159,
      "▁yonder": 4160,
      "▁Beseech": 4161,
      "▁Marshal": 4162,
      "▁Nothing": 4163,
      "▁advance": 4164,
      "▁apparel": 4165,
      "▁attempt": 4166,
      "▁beloved": 4167,
      "▁colours": 4168,
      "▁courage": 4169,
      "▁dukedom": 4170,
      "▁looking": 4171,
      "▁mistake": 4172,
      "▁natural": 4173,
      "▁needful": 4174,
      "▁opinion": 4175,
      "▁painted": 4176,
      "▁piteous": 4177,
      "▁princes": 4178,
      "▁remains": 4179,
      "▁shortly": 4180,
      "▁swallow": 4181,
      "▁wounded": 4182,
      "▁complain": 4183,
      "▁discover": 4184,
      "▁fortunes": 4185,
      "▁instruct": 4186,
      "▁language": 4187,
      "▁princess": 4188,
      "▁senators": 4189,
      "▁services": 4190,
      "▁sometime": 4191,
      "▁BALTHASAR": 4192,
      "▁assurance": 4193,
      "▁commanded": 4194,
      "▁excellent": 4195,
      "▁happiness": 4196,
      "▁hereafter": 4197,
      "▁obedience": 4198,
      "▁pronounce": 4199,
      "▁sometimes": 4200,
      "▁undertake": 4201,
      "▁unnatural": 4202,
      "▁discontent": 4203,
      "▁government": 4204,
      "▁instrument": 4205,
      "▁counterfeit": 4206,
      "▁remembrance": 4207,
      "OS": 4208,
      "oe": 4209,
      "ys": 4210,
      "?--": 4211,
      "CAS": 4212,
      "FOL": 4213,
      "OSS": 4214,
      "afe": 4215,
      "bow": 4216,
      "dds": 4217,
      "fer": 4218,
      "hor": 4219,
      "ita": 4220,
      "lar": 4221,
      "lic": 4222,
      "val": 4223,
      "whe": 4224,
      "▁El": 4225,
      "▁Le": 4226,
      "FOLK": 4227,
      "ants": 4228,
      "arts": 4229,
      "atic": 4230,
      "born": 4231,
      "gers": 4232,
      "hest": 4233,
      "noon": 4234,
      "oved": 4235,
      "same": 4236,
      "uary": 4237,
      "uses": 4238,
      "what": 4239,
      "wise": 4240,
      "▁App": 4241,
      "▁Cal": 4242,
      "▁Lay": 4243,
      "▁Rem": 4244,
      "▁Ret": 4245,
      "▁Ros": 4246,
      "▁Set": 4247,
      "▁Tit": 4248,
      "▁gru": 4249,
      "▁haz": 4250,
      "▁imm": 4251,
      "▁its": 4252,
      "▁kin": 4253,
      "▁led": 4254,
      "▁mag": 4255,
      "▁odd": 4256,
      "▁pol": 4257,
      "▁sky": 4258,
      "▁tap": 4259,
      "▁ung": 4260,
      "▁vex": 4261,
      "akest": 4262,
      "arent": 4263,
      "ences": 4264,
      "happy": 4265,
      "ieved": 4266,
      "ified": 4267,
      "ishop": 4268,
      "isper": 4269,
      "olute": 4270,
      "orset": 4271,
      "think": 4272,
      "ument": 4273,
      "vours": 4274,
      "▁Amen": 4275,
      "▁Comm": 4276,
      "▁Dear": 4277,
      "▁Four": 4278,
      "▁Jack": 4279,
      "▁Long": 4280,
      "▁Page": 4281,
      "▁Post": 4282,
      "▁ROSS": 4283,
      "▁Sold": 4284,
      "▁bare": 4285,
      "▁boar": 4286,
      "▁bott": 4287,
      "▁cock": 4288,
      "▁conc": 4289,
      "▁east": 4290,
      "▁fame": 4291,
      "▁grey": 4292,
      "▁host": 4293,
      "▁isle": 4294,
      "▁mere": 4295,
      "▁mile": 4296,
      "▁mill": 4297,
      "▁odds": 4298,
      "▁qual": 4299,
      "▁repe": 4300,
      "▁ring": 4301,
      "▁rule": 4302,
      "▁shun": 4303,
      "▁sink": 4304,
      "▁sins": 4305,
      "▁slay": 4306,
      "▁stol": 4307,
      "▁test": 4308,
      "▁virg": 4309,
      "▁wait": 4310,
      "▁worn": 4311,
      "chance": 4312,
      "ctions": 4313,
      "idence": 4314,
      "ourage": 4315,
      "strous": 4316,
      "uteous": 4317,
      "▁Lucio": 4318,
      "▁March": 4319,
      "▁Those": 4320,
      "▁Widow": 4321,
      "▁Young": 4322,
      "▁alter": 4323,
      "▁block": 4324,
      "▁blush": 4325,
      "▁brain": 4326,
      "▁cease": 4327,
      "▁drops": 4328,
      "▁drums": 4329,
      "▁flies": 4330,
      "▁frame": 4331,
      "▁grows": 4332,
      "▁journ": 4333,
      "▁knife": 4334,
      "▁leads": 4335,
      "▁maint": 4336,
      "▁meant": 4337,
      "▁oppos": 4338,
      "▁realm": 4339,
      "▁rogue": 4340,
      "▁scene": 4341,
      "▁scope": 4342,
      "▁seize": 4343,
      "▁shape": 4344,
      "▁slept": 4345,
      "▁spite": 4346,
      "▁strew": 4347,
      "▁terms": 4348,
      "▁thief": 4349,
      "▁trade": 4350,
      "▁trick": 4351,
      "▁vault": 4352,
      "▁venom": 4353,
      "▁wants": 4354,
      "▁winds": 4355,
      "▁write": 4356,
      "ination": 4357,
      "ression": 4358,
      "▁DORCAS": 4359,
      "▁Dorset": 4360,
      "▁Exeter": 4361,
      "▁Naples": 4362,
      "▁Volsce": 4363,
      "▁Worthy": 4364,
      "▁absent": 4365,
      "▁accord": 4366,
      "▁advers": 4367,
      "▁armour": 4368,
      "▁behalf": 4369,
      "▁brings": 4370,
      "▁camest": 4371,
      "▁choler": 4372,
      "▁comest": 4373,
      "▁compan": 4374,
      "▁dagger": 4375,
      "▁degree": 4376,
      "▁direct": 4377,
      "▁enmity": 4378,
      "▁freely": 4379,
      "▁houses": 4380,
      "▁imposs": 4381,
      "▁intell": 4382,
      "▁island": 4383,
      "▁maiden": 4384,
      "▁nought": 4385,
      "▁powers": 4386,
      "▁praise": 4387,
      "▁purcha": 4388,
      "▁repair": 4389,
      "▁serves": 4390,
      "▁smooth": 4391,
      "▁NORFOLK": 4392,
      "▁Whither": 4393,
      "▁apprehe": 4394,
      "▁captain": 4395,
      "▁compass": 4396,
      "▁disdain": 4397,
      "▁earnest": 4398,
      "▁fathers": 4399,
      "▁granted": 4400,
      "▁hateful": 4401,
      "▁instant": 4402,
      "▁manners": 4403,
      "▁passage": 4404,
      "▁passion": 4405,
      "▁privile": 4406,
      "▁sceptre": 4407,
      "▁seeming": 4408,
      "▁torment": 4409,
      "▁unknown": 4410,
      "▁weather": 4411,
      "▁approach": 4412,
      "▁consider": 4413,
      "▁contract": 4414,
      "▁deserves": 4415,
      "▁friendly": 4416,
      "▁glorious": 4417,
      "▁increase": 4418,
      "▁reverend": 4419,
      "▁untimely": 4420,
      "▁Boatswain": 4421,
      "▁Gentlemen": 4422,
      "▁contented": 4423,
      "▁monstrous": 4424,
      "▁respected": 4425,
      "▁suspicion": 4426,
      "▁particular": 4427,
      "▁prosperous": 4428,
      "▁resolution": 4429,
      "▁treacherous": 4430,
      "GH": 4431,
      "NS": 4432,
      "RR": 4433,
      "fl": 4434,
      "God": 4435,
      "NSO": 4436,
      "SET": 4437,
      "elt": 4438,
      "iny": 4439,
      "kin": 4440,
      "ped": 4441,
      "rey": 4442,
      "ric": 4443,
      "uce": 4444,
      "▁Se": 4445,
      "▁Ye": 4446,
      "▁da": 4447,
      "RREL": 4448,
      "ades": 4449,
      "ales": 4450,
      "atcl": 4451,
      "erns": 4452,
      "fret": 4453,
      "iate": 4454,
      "iven": 4455,
      "just": 4456,
      "oral": 4457,
      "rain": 4458,
      "reme": 4459,
      "ruly": 4460,
      "▁ALO": 4461,
      "▁Ber": 4462,
      "▁Bra": 4463,
      "▁Ire": 4464,
      "▁Lau": 4465,
      "▁Mil": 4466,
      "▁Pat": 4467,
      "▁Rom": 4468,
      "▁Son": 4469,
      "▁dig": 4470,
      "▁dri": 4471,
      "▁ens": 4472,
      "▁fig": 4473,
      "▁glo": 4474,
      "▁ing": 4475,
      "▁jew": 4476,
      "▁rap": 4477,
      "▁spr": 4478,
      "▁squ": 4479,
      "ERDIN": 4480,
      "aline": 4481,
      "ances": 4482,
      "andal": 4483,
      "ature": 4484,
      "ember": 4485,
      "raced": 4486,
      "▁Came": 4487,
      "▁Down": 4488,
      "▁Play": 4489,
      "▁Save": 4490,
      "▁Stri": 4491,
      "▁Supp": 4492,
      "▁able": 4493,
      "▁bird": 4494,
      "▁braw": 4495,
      "▁bury": 4496,
      "▁chat": 4497,
      "▁clam": 4498,
      "▁furn": 4499,
      "▁lark": 4500,
      "▁lion": 4501,
      "▁melt": 4502,
      "▁nobl": 4503,
      "▁perj": 4504,
      "▁puts": 4505,
      "▁roar": 4506,
      "▁ruth": 4507,
      "▁spur": 4508,
      "▁suck": 4509,
      "▁tame": 4510,
      "▁tide": 4511,
      "▁vows": 4512,
      "▁wept": 4513,
      "▁About": 4514,
      "▁Bring": 4515,
      "▁Froth": 4516,
      "▁GREEN": 4517,
      "▁Ghost": 4518,
      "▁Hunts": 4519,
      "▁Ratcl": 4520,
      "▁Titus": 4521,
      "▁Until": 4522,
      "▁abhor": 4523,
      "▁adver": 4524,
      "▁affli": 4525,
      "▁alike": 4526,
      "▁avoid": 4527,
      "▁beard": 4528,
      "▁begun": 4529,
      "▁boots": 4530,
      "▁build": 4531,
      "▁catch": 4532,
      "▁conce": 4533,
      "▁daily": 4534,
      "▁dress": 4535,
      "▁dying": 4536,
      "▁elder": 4537,
      "▁fears": 4538,
      "▁finds": 4539,
      "▁flatt": 4540,
      "▁haply": 4541,
      "▁hasty": 4542,
      "▁holds": 4543,
      "▁lusty": 4544,
      "▁nobly": 4545,
      "▁north": 4546,
      "▁parli": 4547,
      "▁patri": 4548,
      "▁peers": 4549,
      "▁press": 4550,
      "▁provo": 4551,
      "▁purse": 4552,
      "▁raise": 4553,
      "▁recom": 4554,
      "▁revol": 4555,
      "▁sends": 4556,
      "▁south": 4557,
      "▁stamp": 4558,
      "▁study": 4559,
      "▁swell": 4560,
      "▁tells": 4561,
      "▁third": 4562,
      "▁thorn": 4563,
      "▁urged": 4564,
      "▁veins": 4565,
      "▁waste": 4566,
      "▁witch": 4567,
      "▁AEdile": 4568,
      "▁ALONSO": 4569,
      "▁DORSET": 4570,
      "▁FERDIN": 4571,
      "▁Romans": 4572,
      "▁TYRREL": 4573,
      "▁Thanks": 4574,
      "▁aboard": 4575,
      "▁advice": 4576,
      "▁amazed": 4577,
      "▁county": 4578,
      "▁darest": 4579,
      "▁disper": 4580,
      "▁estate": 4581,
      "▁famous": 4582,
      "▁gently": 4583,
      "▁giving": 4584,
      "▁grieve": 4585,
      "▁groans": 4586,
      "▁hanged": 4587,
      "▁hardly": 4588,
      "▁kindly": 4589,
      "▁lovely": 4590,
      "▁muster": 4591,
      "▁parent": 4592,
      "▁pieces": 4593,
      "▁profit": 4594,
      "▁rascal": 4595,
      "▁rebell": 4596,
      "▁record": 4597,
      "▁season": 4598,
      "▁silent": 4599,
      "▁single": 4600,
      "▁smiles": 4601,
      "▁taught": 4602,
      "▁thrice": 4603,
      "▁unless": 4604,
      "▁virgin": 4605,
      "▁wealth": 4606,
      "▁worthi": 4607,
      "▁Conspir": 4608,
      "▁Ireland": 4609,
      "▁Pomfret": 4610,
      "▁Sicilia": 4611,
      "▁Soldier": 4612,
      "▁accused": 4613,
      "▁arrived": 4614,
      "▁assured": 4615,
      "▁bearing": 4616,
      "▁bethink": 4617,
      "▁charged": 4618,
      "▁conceit": 4619,
      "▁conduct": 4620,
      "▁current": 4621,
      "▁destroy": 4622,
      "▁enforce": 4623,
      "▁forbear": 4624,
      "▁garland": 4625,
      "▁journey": 4626,
      "▁soundly": 4627,
      "▁special": 4628,
      "▁streets": 4629,
      "▁warlike": 4630,
      "▁whereof": 4631,
      "▁whisper": 4632,
      "▁willing": 4633,
      "▁wrought": 4634,
      "▁Huntsman": 4635,
      "▁Ratcliff": 4636,
      "▁Rosaline": 4637,
      "▁circumst": 4638,
      "▁constant": 4639,
      "▁greatest": 4640,
      "▁grievous": 4641,
      "▁maintain": 4642,
      "▁perforce": 4643,
      "▁revenged": 4644,
      "▁shoulder": 4645,
      "▁supposed": 4646,
      "▁FERDINAND": 4647,
      "▁afternoon": 4648,
      "▁committed": 4649,
      "▁messenger": 4650,
      "▁perpetual": 4651,
      "▁protector": 4652,
      "▁sanctuary": 4653,
      "▁willingly": 4654,
      "▁affections": 4655,
      "▁commission": 4656,
      "▁parliament": 4657,
      "▁instruments": 4658,
      "▁imprisonment": 4659,
      "Th": 4660,
      "gl": 4661,
      "ib": 4662,
      "pr": 4663,
      "zz": 4664,
      "▁z": 4665,
      ";--": 4666,
      "LIS": 4667,
      "aly": 4668,
      "ams": 4669,
      "cei": 4670,
      "con": 4671,
      "dig": 4672,
      "eat": 4673,
      "gar": 4674,
      "icy": 4675,
      "ipe": 4676,
      "ipp": 4677,
      "ker": 4678,
      "law": 4679,
      "nal": 4680,
      "nty": 4681,
      "rac": 4682,
      "ser": 4683,
      "uch": 4684,
      "ulf": 4685,
      "upt": 4686,
      "vet": 4687,
      "▁Fo": 4688,
      "▁Ho": 4689,
      "▁Sm": 4690,
      "▁Vi": 4691,
      "▁fi": 4692,
      "▁sy": 4693,
      "aces": 4694,
      "aded": 4695,
      "ages": 4696,
      "alis": 4697,
      "ater": 4698,
      "clam": 4699,
      "deem": 4700,
      "eder": 4701,
      "enna": 4702,
      "erby": 4703,
      "erer": 4704,
      "esar": 4705,
      "fall": 4706,
      "grim": 4707,
      "iety": 4708,
      "llen": 4709,
      "more": 4710,
      "mory": 4711,
      "omen": 4712,
      "onci": 4713,
      "owry": 4714,
      "pass": 4715,
      "roll": 4716,
      "rrel": 4717,
      "ties": 4718,
      "time": 4719,
      "tled": 4720,
      "uing": 4721,
      "uten": 4722,
      "vior": 4723,
      "▁Acc": 4724,
      "▁Ben": 4725,
      "▁Bus": 4726,
      "▁Min": 4727,
      "▁Six": 4728,
      "▁Tar": 4729,
      "▁ach": 4730,
      "▁ago": 4731,
      "▁apt": 4732,
      "▁dim": 4733,
      "▁fun": 4734,
      "▁hie": 4735,
      "▁hor": 4736,
      "▁lin": 4737,
      "▁mel": 4738,
      "▁mir": 4739,
      "▁oak": 4740,
      "▁pot": 4741,
      "▁sal": 4742,
      "▁sue": 4743,
      "▁une": 4744,
      "▁ves": 4745,
      "Twere": 4746,
      "aming": 4747,
      "ative": 4748,
      "erity": 4749,
      "ested": 4750,
      "etite": 4751,
      "faced": 4752,
      "forth": 4753,
      "groom": 4754,
      "harge": 4755,
      "ierce": 4756,
      "ignty": 4757,
      "orted": 4758,
      "osing": 4759,
      "ouchs": 4760,
      "ourse": 4761,
      "shire": 4762,
      "ulate": 4763,
      "ullus": 4764,
      "▁Anti": 4765,
      "▁Cond": 4766,
      "▁Conf": 4767,
      "▁Dare": 4768,
      "▁Draw": 4769,
      "▁aunt": 4770,
      "▁bade": 4771,
      "▁begu": 4772,
      "▁boys": 4773,
      "▁cere": 4774,
      "▁cher": 4775,
      "▁clim": 4776,
      "▁feet": 4777,
      "▁food": 4778,
      "▁fors": 4779,
      "▁frow": 4780,
      "▁helm": 4781,
      "▁holp": 4782,
      "▁horn": 4783,
      "▁inqu": 4784,
      "▁lent": 4785,
      "▁mult": 4786,
      "▁nail": 4787,
      "▁port": 4788,
      "▁rare": 4789,
      "▁reck": 4790,
      "▁rejo": 4791,
      "▁rust": 4792,
      "▁salt": 4793,
      "▁sees": 4794,
      "▁sell": 4795,
      "▁sets": 4796,
      "▁sire": 4797,
      "▁snow": 4798,
      "▁sore": 4799,
      "▁sple": 4800,
      "▁stro": 4801,
      "▁tall": 4802,
      "▁task": 4803,
      "▁unst": 4804,
      "▁whip": 4805,
      "▁wide": 4806,
      "▁wing": 4807,
      "▁yoke": 4808,
      "▁yond": 4809,
      "eeming": 4810,
      "father": 4811,
      "forced": 4812,
      "semble": 4813,
      "soever": 4814,
      "▁Derby": 4815,
      "▁Makes": 4816,
      "▁Milan": 4817,
      "▁Noble": 4818,
      "▁Salis": 4819,
      "▁abide": 4820,
      "▁agree": 4821,
      "▁alack": 4822,
      "▁below": 4823,
      "▁blunt": 4824,
      "▁books": 4825,
      "▁brace": 4826,
      "▁chase": 4827,
      "▁confe": 4828,
      "▁corre": 4829,
      "▁craft": 4830,
      "▁diffe": 4831,
      "▁equal": 4832,
      "▁event": 4833,
      "▁exerc": 4834,
      "▁fancy": 4835,
      "▁fires": 4836,
      "▁flood": 4837,
      "▁habit": 4838,
      "▁image": 4839,
      "▁manif": 4840,
      "▁merit": 4841,
      "▁newly": 4842,
      "▁oaths": 4843,
      "▁pitch": 4844,
      "▁pound": 4845,
      "▁prett": 4846,
      "▁prick": 4847,
      "▁regal": 4848,
      "▁ruled": 4849,
      "▁smell": 4850,
      "▁sooth": 4851,
      "▁stabb": 4852,
      "▁sting": 4853,
      "▁stopp": 4854,
      "▁stout": 4855,
      "▁stret": 4856,
      "▁tarry": 4857,
      "▁twain": 4858,
      "▁weeps": 4859,
      "▁wrink": 4860,
      "ancholy": 4861,
      "itation": 4862,
      "ruction": 4863,
      "utenant": 4864,
      "▁Caesar": 4865,
      "▁Cannot": 4866,
      "▁Fourth": 4867,
      "▁Marian": 4868,
      "▁Rather": 4869,
      "▁Tyrrel": 4870,
      "▁Vienna": 4871,
      "▁appeal": 4872,
      "▁assure": 4873,
      "▁ballad": 4874,
      "▁barren": 4875,
      "▁beasts": 4876,
      "▁betray": 4877,
      "▁caught": 4878,
      "▁charac": 4879,
      "▁deceit": 4880,
      "▁disple": 4881,
      "▁fairer": 4882,
      "▁forced": 4883,
      "▁graves": 4884,
      "▁knaves": 4885,
      "▁length": 4886,
      "▁mouths": 4887,
      "▁native": 4888,
      "▁partly": 4889,
      "▁points": 4890,
      "▁raised": 4891,
      "▁redeem": 4892,
      "▁regard": 4893,
      "▁resist": 4894,
      "▁saying": 4895,
      "▁secure": 4896,
      "▁shield": 4897,
      "▁slaves": 4898,
      "▁stroke": 4899,
      "▁surely": 4900,
      "▁unjust": 4901,
      "▁unkind": 4902,
      "▁vessel": 4903,
      "▁waking": 4904,
      "▁Proceed": 4905,
      "▁besides": 4906,
      "▁betimes": 4907,
      "▁commons": 4908,
      "▁complex": 4909,
      "▁defence": 4910,
      "▁descend": 4911,
      "▁desires": 4912,
      "▁dignity": 4913,
      "▁fairest": 4914,
      "▁fashion": 4915,
      "▁feeling": 4916,
      "▁forfeit": 4917,
      "▁forgive": 4918,
      "▁froward": 4919,
      "▁parting": 4920,
      "▁pilgrim": 4921,
      "▁reconci": 4922,
      "▁substit": 4923,
      "▁suspect": 4924,
      "▁tempest": 4925,
      "▁tremble": 4926,
      "▁trumpet": 4927,
      "▁tyranny": 4928,
      "▁unhappy": 4929,
      "▁virtues": 4930,
      "▁accident": 4931,
      "▁alliance": 4932,
      "▁although": 4933,
      "▁apparent": 4934,
      "▁appetite": 4935,
      "▁breathed": 4936,
      "▁contempt": 4937,
      "▁devotion": 4938,
      "▁disgrace": 4939,
      "▁exchange": 4940,
      "▁faithful": 4941,
      "▁forswear": 4942,
      "▁mistrust": 4943,
      "▁obedient": 4944,
      "▁offended": 4945,
      "▁penitent": 4946,
      "▁powerful": 4947,
      "▁renowned": 4948,
      "▁sickness": 4949,
      "▁standing": 4950,
      "▁treasure": 4951,
      "▁weakness": 4952,
      "▁Salisbury": 4953,
      "▁according": 4954,
      "▁beholding": 4955,
      "▁complaint": 4956,
      "▁falsehood": 4957,
      "▁household": 4958,
      "▁rebellion": 4959,
      "▁reverence": 4960,
      "▁wholesome": 4961,
      "▁bridegroom": 4962,
      "▁conference": 4963,
      "▁determined": 4964,
      "▁impossible": 4965,
      "▁melancholy": 4966,
      "▁patricians": 4967,
      "▁sovereignty": 4968,
      "▁entertainment": 4969,
      "Ay": 4970,
      "DR": 4971,
      "IT": 4972,
      "gn": 4973,
      "ns": 4974,
      "rs": 4975,
      "xe": 4976,
      ".--": 4977,
      "EOM": 4978,
      "LOU": 4979,
      "bod": 4980,
      "com": 4981,
      "eve": 4982,
      "iam": 4983,
      "nes": 4984,
      "rat": 4985,
      "tic": 4986,
      "uit": 4987,
      "▁Af": 4988,
      "▁Aw": 4989,
      "▁Kn": 4990,
      "▁Ra": 4991,
      "GHBY": 4992,
      "ROTH": 4993,
      "ases": 4994,
      "bear": 4995,
      "cary": 4996,
      "cate": 4997,
      "cies": 4998,
      "dita": 4999,
      "fold": 5000,
      "ical": 5001,
      "illy": 5002,
      "inct": 5003,
      "irty": 5004,
      "iter": 5005,
      "ivil": 5006,
      "ized": 5007,
      "long": 5008,
      "maid": 5009,
      "mong": 5010,
      "onst": 5011,
      "sell": 5012,
      "teen": 5013,
      "ulch": 5014,
      "weal": 5015,
      "wife": 5016,
      "▁ADR": 5017,
      "▁Cle": 5018,
      "▁Cry": 5019,
      "▁Cur": 5020,
      "▁Get": 5021,
      "▁Him": 5022,
      "▁Lie": 5023,
      "▁Thr": 5024,
      "▁Val": 5025,
      "▁Ven": 5026,
      "▁WIL": 5027,
      "▁axe": 5028,
      "▁bir": 5029,
      "▁bon": 5030,
      "▁deb": 5031,
      "▁eng": 5032,
      "▁jot": 5033,
      "▁lap": 5034,
      "▁nap": 5035,
      "▁ope": 5036,
      "▁ped": 5037,
      "▁pee": 5038,
      "▁spl": 5039,
      "▁spy": 5040,
      "▁ste": 5041,
      "▁suc": 5042,
      "▁tim": 5043,
      "▁var": 5044,
      "▁vel": 5045,
      "▁vol": 5046,
      "▁wid": 5047,
      "▁yes": 5048,
      "aning": 5049,
      "earer": 5050,
      "erves": 5051,
      "herit": 5052,
      "icles": 5053,
      "imble": 5054,
      "irect": 5055,
      "itten": 5056,
      "omach": 5057,
      "ories": 5058,
      "othes": 5059,
      "otted": 5060,
      "stery": 5061,
      "uries": 5062,
      "ushes": 5063,
      "▁Anon": 5064,
      "▁Betw": 5065,
      "▁Each": 5066,
      "▁Fort": 5067,
      "▁Hail": 5068,
      "▁Lart": 5069,
      "▁Many": 5070,
      "▁Soft": 5071,
      "▁Time": 5072,
      "▁Tush": 5073,
      "▁Vill": 5074,
      "▁blem": 5075,
      "▁bran": 5076,
      "▁bred": 5077,
      "▁buck": 5078,
      "▁coff": 5079,
      "▁cost": 5080,
      "▁curt": 5081,
      "▁deck": 5082,
      "▁decl": 5083,
      "▁edge": 5084,
      "▁fact": 5085,
      "▁fawn": 5086,
      "▁fish": 5087,
      "▁gaze": 5088,
      "▁grat": 5089,
      "▁iron": 5090,
      "▁knot": 5091,
      "▁lift": 5092,
      "▁line": 5093,
      "▁mess": 5094,
      "▁mood": 5095,
      "▁rail": 5096,
      "▁rain": 5097,
      "▁reap": 5098,
      "▁ride": 5099,
      "▁ripe": 5100,
      "▁sham": 5101,
      "▁shri": 5102,
      "▁slip": 5103,
      "▁spit": 5104,
      "▁tail": 5105,
      "▁toad": 5106,
      "▁toil": 5107,
      "▁tres": 5108,
      "▁wake": 5109,
      "▁west": 5110,
      "▁whit": 5111,
      "▁wink": 5112,
      "bation": 5113,
      "itable": 5114,
      "seless": 5115,
      "▁Among": 5116,
      "▁Bushy": 5117,
      "▁CLEOM": 5118,
      "▁Didst": 5119,
      "▁FROTH": 5120,
      "▁Happy": 5121,
      "▁Italy": 5122,
      "▁Somet": 5123,
      "▁Sound": 5124,
      "▁Uncle": 5125,
      "▁babes": 5126,
      "▁began": 5127,
      "▁burst": 5128,
      "▁chall": 5129,
      "▁civil": 5130,
      "▁coron": 5131,
      "▁counc": 5132,
      "▁disgu": 5133,
      "▁dowry": 5134,
      "▁eagle": 5135,
      "▁estim": 5136,
      "▁hangs": 5137,
      "▁harsh": 5138,
      "▁hated": 5139,
      "▁heirs": 5140,
      "▁human": 5141,
      "▁impat": 5142,
      "▁incen": 5143,
      "▁innoc": 5144,
      "▁liken": 5145,
      "▁lover": 5146,
      "▁marks": 5147,
      "▁minds": 5148,
      "▁mirth": 5149,
      "▁negle": 5150,
      "▁occup": 5151,
      "▁offic": 5152,
      "▁pause": 5153,
      "▁scold": 5154,
      "▁spect": 5155,
      "▁stick": 5156,
      "▁super": 5157,
      "▁swain": 5158,
      "▁takes": 5159,
      "▁taunt": 5160,
      "▁thick": 5161,
      "▁tooth": 5162,
      "▁wager": 5163,
      "▁wakes": 5164,
      "▁warri": 5165,
      "LOUGHBY": 5166,
      "▁ADRIAN": 5167,
      "▁Behold": 5168,
      "▁Better": 5169,
      "▁County": 5170,
      "▁Follow": 5171,
      "▁Return": 5172,
      "▁Tullus": 5173,
      "▁abused": 5174,
      "▁bigger": 5175,
      "▁chaste": 5176,
      "▁craves": 5177,
      "▁dearly": 5178,
      "▁deaths": 5179,
      "▁dismal": 5180,
      "▁fierce": 5181,
      "▁frowns": 5182,
      "▁griefs": 5183,
      "▁infant": 5184,
      "▁keeper": 5185,
      "▁league": 5186,
      "▁lesser": 5187,
      "▁lovest": 5188,
      "▁manage": 5189,
      "▁memory": 5190,
      "▁modest": 5191,
      "▁object": 5192,
      "▁pierce": 5193,
      "▁policy": 5194,
      "▁refuse": 5195,
      "▁remove": 5196,
      "▁repeal": 5197,
      "▁repose": 5198,
      "▁retire": 5199,
      "▁revolt": 5200,
      "▁rights": 5201,
      "▁seldom": 5202,
      "▁served": 5203,
      "▁shrewd": 5204,
      "▁shroud": 5205,
      "▁sights": 5206,
      "▁steeds": 5207,
      "▁subtle": 5208,
      "▁suffic": 5209,
      "▁suitor": 5210,
      "▁sullen": 5211,
      "▁supply": 5212,
      "▁thirty": 5213,
      "▁thread": 5214,
      "▁trusty": 5215,
      "▁uncles": 5216,
      "▁visage": 5217,
      "banished": 5218,
      "othecary": 5219,
      "ouchsafe": 5220,
      "▁Commend": 5221,
      "▁Lartius": 5222,
      "▁Mariana": 5223,
      "▁Perdita": 5224,
      "▁Through": 5225,
      "▁Whether": 5226,
      "▁William": 5227,
      "▁clothes": 5228,
      "▁conceal": 5229,
      "▁confirm": 5230,
      "▁dearest": 5231,
      "▁descent": 5232,
      "▁feather": 5233,
      "▁foreign": 5234,
      "▁gallant": 5235,
      "▁growing": 5236,
      "▁meeting": 5237,
      "▁modesty": 5238,
      "▁mystery": 5239,
      "▁perhaps": 5240,
      "▁plainly": 5241,
      "▁proclam": 5242,
      "▁prophet": 5243,
      "▁redress": 5244,
      "▁remorse": 5245,
      "▁removed": 5246,
      "▁satisfy": 5247,
      "▁scandal": 5248,
      "▁sepulch": 5249,
      "▁shadows": 5250,
      "▁sorrows": 5251,
      "▁strokes": 5252,
      "▁stumble": 5253,
      "▁succeed": 5254,
      "▁sweeter": 5255,
      "▁torture": 5256,
      "▁windows": 5257,
      "▁writing": 5258,
      "▁yielded": 5259,
      "▁younger": 5260,
      "▁absolute": 5261,
      "▁accursed": 5262,
      "▁acquaint": 5263,
      "▁careless": 5264,
      "▁executed": 5265,
      "▁exercise": 5266,
      "▁fourteen": 5267,
      "▁heartily": 5268,
      "▁heavenly": 5269,
      "▁monument": 5270,
      "▁opposite": 5271,
      "▁pleasing": 5272,
      "▁purchase": 5273,
      "▁selfsame": 5274,
      "▁servants": 5275,
      "▁stranger": 5276,
      "▁stronger": 5277,
      "▁trespass": 5278,
      "▁withdraw": 5279,
      "▁wondrous": 5280,
      "▁youngest": 5281,
      "▁CLEOMENES": 5282,
      "▁adventure": 5283,
      "▁appointed": 5284,
      "▁beauteous": 5285,
      "▁determine": 5286,
      "▁direction": 5287,
      "▁extremity": 5288,
      "▁flatterer": 5289,
      "▁greatness": 5290,
      "▁ignorance": 5291,
      "▁infection": 5292,
      "▁mischance": 5293,
      "▁privilege": 5294,
      "▁trembling": 5295,
      "▁WILLOUGHBY": 5296,
      "▁commonweal": 5297,
      "▁countrymen": 5298,
      "▁triumphant": 5299,
      "▁Conspirator": 5300,
      "▁adversaries": 5301,
      "▁executioner": 5302,
      "▁instruction": 5303,
      "EP": 5304,
      "ax": 5305,
      "gy": 5306,
      "we": 5307,
      "ARN": 5308,
      "EPH": 5309,
      "INE": 5310,
      "ann": 5311,
      "app": 5312,
      "aug": 5313,
      "bio": 5314,
      "but": 5315,
      "cue": 5316,
      "esu": 5317,
      "iar": 5318,
      "ips": 5319,
      "mas": 5320,
      "ola": 5321,
      "oon": 5322,
      "owl": 5323,
      "rif": 5324,
      "sey": 5325,
      "sha": 5326,
      "son": 5327,
      "sop": 5328,
      "▁Ap": 5329,
      "▁Gu": 5330,
      "▁Im": 5331,
      "▁Oh": 5332,
      "▁Wr": 5333,
      "▁ah": 5334,
      "▁sn": 5335,
      "AMUS": 5336,
      "aker": 5337,
      "ares": 5338,
      "ased": 5339,
      "athe": 5340,
      "ayed": 5341,
      "bble": 5342,
      "bert": 5343,
      "cels": 5344,
      "ders": 5345,
      "enge": 5346,
      "hern": 5347,
      "hrew": 5348,
      "iced": 5349,
      "icio": 5350,
      "iddy": 5351,
      "iege": 5352,
      "ilth": 5353,
      "ital": 5354,
      "ived": 5355,
      "iver": 5356,
      "lied": 5357,
      "nken": 5358,
      "oops": 5359,
      "oubt": 5360,
      "rage": 5361,
      "raid": 5362,
      "rank": 5363,
      "rity": 5364,
      "sire": 5365,
      "some": 5366,
      "ueen": 5367,
      "▁Att": 5368,
      "▁Bre": 5369,
      "▁Bur": 5370,
      "▁Del": 5371,
      "▁Ely": 5372,
      "▁Fal": 5373,
      "▁Imp": 5374,
      "▁Old": 5375,
      "▁Pri": 5376,
      "▁RUT": 5377,
      "▁Sur": 5378,
      "▁Wed": 5379,
      "▁Woe": 5380,
      "▁ale": 5381,
      "▁bag": 5382,
      "▁cat": 5383,
      "▁fix": 5384,
      "▁hig": 5385,
      "▁hom": 5386,
      "▁hop": 5387,
      "▁ink": 5388,
      "▁lur": 5389,
      "▁mil": 5390,
      "▁net": 5391,
      "▁orn": 5392,
      "▁sav": 5393,
      "▁tig": 5394,
      "▁tou": 5395,
      "▁tro": 5396,
      "▁unm": 5397,
      "▁yon": 5398,
      "ables": 5399,
      "acles": 5400,
      "agues": 5401,
      "ainty": 5402,
      "ansom": 5403,
      "ardel": 5404,
      "atest": 5405,
      "athed": 5406,
      "cheth": 5407,
      "chief": 5408,
      "eping": 5409,
      "ering": 5410,
      "hamed": 5411,
      "icate": 5412,
      "inate": 5413,
      "ision": 5414,
      "itiff": 5415,
      "keley": 5416,
      "ontes": 5417,
      "orney": 5418,
      "pense": 5419,
      "ratch": 5420,
      "rible": 5421,
      "twill": 5422,
      "unate": 5423,
      "▁Anne": 5424,
      "▁BARN": 5425,
      "▁Cast": 5426,
      "▁Dido": 5427,
      "▁Disp": 5428,
      "▁Does": 5429,
      "▁Fair": 5430,
      "▁Find": 5431,
      "▁Gree": 5432,
      "▁Hang": 5433,
      "▁Perc": 5434,
      "▁Send": 5435,
      "▁Vaug": 5436,
      "▁Wife": 5437,
      "▁ages": 5438,
      "▁alms": 5439,
      "▁bank": 5440,
      "▁bere": 5441,
      "▁bill": 5442,
      "▁bore": 5443,
      "▁butt": 5444,
      "▁caps": 5445,
      "▁coll": 5446,
      "▁cram": 5447,
      "▁crow": 5448,
      "▁date": 5449,
      "▁deaf": 5450,
      "▁dogs": 5451,
      "▁dove": 5452,
      "▁drag": 5453,
      "▁eter": 5454,
      "▁exam": 5455,
      "▁fant": 5456,
      "▁flow": 5457,
      "▁fret": 5458,
      "▁godd": 5459,
      "▁grew": 5460,
      "▁hare": 5461,
      "▁heat": 5462,
      "▁hers": 5463,
      "▁hind": 5464,
      "▁hire": 5465,
      "▁laws": 5466,
      "▁lets": 5467,
      "▁luck": 5468,
      "▁main": 5469,
      "▁neat": 5470,
      "▁nest": 5471,
      "▁nice": 5472,
      "▁numb": 5473,
      "▁nupt": 5474,
      "▁page": 5475,
      "▁paid": 5476,
      "▁path": 5477,
      "▁pear": 5478,
      "▁pern": 5479,
      "▁prep": 5480,
      "▁rank": 5481,
      "▁serp": 5482,
      "▁sirs": 5483,
      "▁subd": 5484,
      "▁thie": 5485,
      "▁thin": 5486,
      "▁tren": 5487,
      "▁trif": 5488,
      "▁unfe": 5489,
      "▁unse": 5490,
      "▁urge": 5491,
      "▁vent": 5492,
      "▁ward": 5493,
      "▁wolf": 5494,
      "▁wore": 5495,
      "▁worm": 5496,
      "▁zeal": 5497,
      "ARDINE": 5498,
      "IDAMUS": 5499,
      "ceives": 5500,
      "ending": 5501,
      "ercing": 5502,
      "fellow": 5503,
      "harged": 5504,
      "headed": 5505,
      "ilence": 5506,
      "ingers": 5507,
      "master": 5508,
      "orough": 5509,
      "pardon": 5510,
      "scalus": 5511,
      "ushing": 5512,
      "▁Elbow": 5513,
      "▁Grace": 5514,
      "▁Green": 5515,
      "▁Hadst": 5516,
      "▁Licio": 5517,
      "▁Prove": 5518,
      "▁Queen": 5519,
      "▁Shore": 5520,
      "▁abuse": 5521,
      "▁amiss": 5522,
      "▁angel": 5523,
      "▁appea": 5524,
      "▁backs": 5525,
      "▁bands": 5526,
      "▁beaut": 5527,
      "▁beget": 5528,
      "▁birds": 5529,
      "▁blast": 5530,
      "▁boast": 5531,
      "▁bread": 5532,
      "▁breed": 5533,
      "▁brown": 5534,
      "▁burns": 5535,
      "▁burnt": 5536,
      "▁charm": 5537,
      "▁cheap": 5538,
      "▁dower": 5539,
      "▁dozen": 5540,
      "▁flint": 5541,
      "▁forty": 5542,
      "▁freed": 5543,
      "▁giddy": 5544,
      "▁goods": 5545,
      "▁grain": 5546,
      "▁heels": 5547,
      "▁honey": 5548,
      "▁jewel": 5549,
      "▁lance": 5550,
      "▁limbs": 5551,
      "▁limit": 5552,
      "▁lower": 5553,
      "▁lying": 5554,
      "▁metal": 5555,
      "▁moral": 5556,
      "▁moves": 5557,
      "▁noted": 5558,
      "▁price": 5559,
      "▁prime": 5560,
      "▁reply": 5561,
      "▁share": 5562,
      "▁shook": 5563,
      "▁sings": 5564,
      "▁spoil": 5565,
      "▁stale": 5566,
      "▁steps": 5567,
      "▁stern": 5568,
      "▁straw": 5569,
      "▁suits": 5570,
      "▁sweat": 5571,
      "▁swore": 5572,
      "▁thumb": 5573,
      "▁torch": 5574,
      "▁troop": 5575,
      "▁trunk": 5576,
      "▁waves": 5577,
      "▁wills": 5578,
      "ribunes": 5579,
      "▁Cambio": 5580,
      "▁Making": 5581,
      "▁Strike": 5582,
      "▁Surrey": 5583,
      "▁Whiles": 5584,
      "▁arrest": 5585,
      "▁befall": 5586,
      "▁bestow": 5587,
      "▁borrow": 5588,
      "▁bottom": 5589,
      "▁contro": 5590,
      "▁covert": 5591,
      "▁escape": 5592,
      "▁fardel": 5593,
      "▁graced": 5594,
      "▁guests": 5595,
      "▁haught": 5596,
      "▁hungry": 5597,
      "▁injury": 5598,
      "▁joints": 5599,
      "▁likely": 5600,
      "▁liking": 5601,
      "▁livery": 5602,
      "▁looked": 5603,
      "▁meddle": 5604,
      "▁minute": 5605,
      "▁months": 5606,
      "▁parted": 5607,
      "▁places": 5608,
      "▁rapier": 5609,
      "▁rebels": 5610,
      "▁restra": 5611,
      "▁sacrif": 5612,
      "▁saints": 5613,
      "▁senses": 5614,
      "▁shapes": 5615,
      "▁shines": 5616,
      "▁shrift": 5617,
      "▁sooner": 5618,
      "▁sought": 5619,
      "▁spleen": 5620,
      "▁statue": 5621,
      "▁strive": 5622,
      "▁thirst": 5623,
      "▁transp": 5624,
      "▁troops": 5625,
      "▁tyrann": 5626,
      "▁unfold": 5627,
      "▁velvet": 5628,
      "▁weapon": 5629,
      "▁wooing": 5630,
      "▁yields": 5631,
      "▁Another": 5632,
      "▁Escalus": 5633,
      "▁Fortune": 5634,
      "▁Justice": 5635,
      "▁Leontes": 5636,
      "▁RUTLAND": 5637,
      "▁Vaughan": 5638,
      "▁Villain": 5639,
      "▁Whereto": 5640,
      "▁actions": 5641,
      "▁advised": 5642,
      "▁affords": 5643,
      "▁burning": 5644,
      "▁caitiff": 5645,
      "▁careful": 5646,
      "▁carried": 5647,
      "▁censure": 5648,
      "▁cherish": 5649,
      "▁clamour": 5650,
      "▁conjure": 5651,
      "▁disease": 5652,
      "▁dismiss": 5653,
      "▁drunken": 5654,
      "▁execute": 5655,
      "▁fearing": 5656,
      "▁happily": 5657,
      "▁imagine": 5658,
      "▁liberal": 5659,
      "▁madness": 5660,
      "▁misfort": 5661,
      "▁monarch": 5662,
      "▁monster": 5663,
      "▁nuptial": 5664,
      "▁offices": 5665,
      "▁peevish": 5666,
      "▁pitiful": 5667,
      "▁praises": 5668,
      "▁process": 5669,
      "▁putting": 5670,
      "▁rejoice": 5671,
      "▁royalty": 5672,
      "▁sadness": 5673,
      "▁scatter": 5674,
      "▁shallow": 5675,
      "▁stomach": 5676,
      "▁stretch": 5677,
      "▁suitors": 5678,
      "▁tapster": 5679,
      "▁telling": 5680,
      "▁thereby": 5681,
      "▁upright": 5682,
      "▁wanting": 5683,
      "▁whereon": 5684,
      "▁written": 5685,
      "▁Although": 5686,
      "▁Berkeley": 5687,
      "▁Laurence": 5688,
      "▁Remember": 5689,
      "▁anointed": 5690,
      "▁behavior": 5691,
      "▁bitterly": 5692,
      "▁bleeding": 5693,
      "▁blessing": 5694,
      "▁childish": 5695,
      "▁conceive": 5696,
      "▁counsell": 5697,
      "▁flourish": 5698,
      "▁immortal": 5699,
      "▁inclined": 5700,
      "▁lengthen": 5701,
      "▁likeness": 5702,
      "▁midnight": 5703,
      "▁nobility": 5704,
      "▁officers": 5705,
      "▁ruthless": 5706,
      "▁sleeping": 5707,
      "▁somewhat": 5708,
      "▁thinking": 5709,
      "▁tomorrow": 5710,
      "▁violence": 5711,
      "▁warriors": 5712,
      "▁Methought": 5713,
      "▁Wherefore": 5714,
      "▁Wiltshire": 5715,
      "▁apprehend": 5716,
      "▁breathing": 5717,
      "▁challenge": 5718,
      "▁character": 5719,
      "▁companion": 5720,
      "▁courteous": 5721,
      "▁discourse": 5722,
      "▁dispersed": 5723,
      "▁forthwith": 5724,
      "▁grandsire": 5725,
      "▁lightning": 5726,
      "▁methought": 5727,
      "▁necessity": 5728,
      "▁prettiest": 5729,
      "▁prevented": 5730,
      "▁senseless": 5731,
      "▁sepulchre": 5732,
      "▁substance": 5733,
      "▁ARCHIDAMUS": 5734,
      "▁BARNARDINE": 5735,
      "▁churchyard": 5736,
      "▁coronation": 5737,
      "▁pernicious": 5738,
      "▁possession": 5739,
      "▁proportion": 5740,
      "▁reputation": 5741,
      "▁succession": 5742,
      "▁threatening": 5743,
      "▁commonwealth": 5744,
      "▁intelligence": 5745,
      "▁proclamation": 5746,
      "AG": 5747,
      "IR": 5748,
      "OT": 5749,
      "ZW": 5750,
      "ta": 5751,
      "wd": 5752,
      "yc": 5753,
      "BAN": 5754,
      "CRO": 5755,
      "EOR": 5756,
      "MOR": 5757,
      "acy": 5758,
      "adv": 5759,
      "arm": 5760,
      "asp": 5761,
      "bey": 5762,
      "cri": 5763,
      "dal": 5764,
      "ded": 5765,
      "dst": 5766,
      "got": 5767,
      "hen": 5768,
      "ndy": 5769,
      "oes": 5770,
      "rog": 5771,
      "sen": 5772,
      "uns": 5773,
      "zed": 5774,
      "▁Em": 5775,
      "▁Ga": 5776,
      "▁Qu": 5777,
      "▁fr": 5778,
      "▁gn": 5779,
      "AGOT": 5780,
      "ATER": 5781,
      "ITZW": 5782,
      "ably": 5783,
      "aged": 5784,
      "agot": 5785,
      "ardy": 5786,
      "cket": 5787,
      "cure": 5788,
      "ersu": 5789,
      "foot": 5790,
      "give": 5791,
      "here": 5792,
      "hilo": 5793,
      "hire": 5794,
      "iban": 5795,
      "iece": 5796,
      "igon": 5797,
      "itch": 5798,
      "join": 5799,
      "kind": 5800,
      "lace": 5801,
      "olks": 5802,
      "oned": 5803,
      "rald": 5804,
      "reet": 5805,
      "rich": 5806,
      "riel": 5807,
      "roof": 5808,
      "spur": 5809,
      "that": 5810,
      "ulls": 5811,
      "umed": 5812,
      "upid": 5813,
      "ushi": 5814,
      "utch": 5815,
      "vied": 5816,
      "wing": 5817,
      "▁Add": 5818,
      "▁CAR": 5819,
      "▁ELY": 5820,
      "▁Fit": 5821,
      "▁Gra": 5822,
      "▁Hie": 5823,
      "▁Hon": 5824,
      "▁Mis": 5825,
      "▁SIR": 5826,
      "▁Saw": 5827,
      "▁Sly": 5828,
      "▁Sus": 5829,
      "▁Ten": 5830,
      "▁Wit": 5831,
      "▁aud": 5832,
      "▁bay": 5833,
      "▁bol": 5834,
      "▁bru": 5835,
      "▁cab": 5836,
      "▁cop": 5837,
      "▁dem": 5838,
      "▁fin": 5839,
      "▁gam": 5840,
      "▁gap": 5841,
      "▁ice": 5842,
      "▁inv": 5843,
      "▁leg": 5844,
      "▁lun": 5845,
      "▁mat": 5846,
      "▁mew": 5847,
      "▁nar": 5848,
      "▁pop": 5849,
      "▁por": 5850,
      "▁rag": 5851,
      "▁rue": 5852,
      "▁sau": 5853,
      "▁sca": 5854,
      "▁sed": 5855,
      "▁una": 5856,
      "▁wax": 5857,
      "▁wet": 5858,
      "CROOP": 5859,
      "ELAND": 5860,
      "EORGE": 5861,
      "EPHEN": 5862,
      "LIBAN": 5863,
      "LISLE": 5864,
      "alter": 5865,
      "arers": 5866,
      "blood": 5867,
      "chers": 5868,
      "emper": 5869,
      "erest": 5870,
      "guard": 5871,
      "gundy": 5872,
      "ickle": 5873,
      "igent": 5874,
      "igned": 5875,
      "ilful": 5876,
      "iliar": 5877,
      "iners": 5878,
      "iring": 5879,
      "ishes": 5880,
      "light": 5881,
      "mbers": 5882,
      "olved": 5883,
      "order": 5884,
      "oured": 5885,
      "ranch": 5886,
      "reant": 5887,
      "shall": 5888,
      "sophy": 5889,
      "ulous": 5890,
      "verty": 5891,
      "vided": 5892,
      "volio": 5893,
      "which": 5894,
      "▁Capt": 5895,
      "▁Desp": 5896,
      "▁Dian": 5897,
      "▁Else": 5898,
      "▁Ever": 5899,
      "▁Five": 5900,
      "▁Full": 5901,
      "▁Gard": 5902,
      "▁Jesu": 5903,
      "▁Live": 5904,
      "▁Much": 5905,
      "▁Name": 5906,
      "▁Part": 5907,
      "▁Virt": 5908,
      "▁WEST": 5909,
      "▁aged": 5910,
      "▁also": 5911,
      "▁anch": 5912,
      "▁balm": 5913,
      "▁beef": 5914,
      "▁bell": 5915,
      "▁bent": 5916,
      "▁brat": 5917,
      "▁busy": 5918,
      "▁buzz": 5919,
      "▁cent": 5920,
      "▁coat": 5921,
      "▁cook": 5922,
      "▁drew": 5923,
      "▁felt": 5924,
      "▁flat": 5925,
      "▁fray": 5926,
      "▁fres": 5927,
      "▁goss": 5928,
      "▁hail": 5929,
      "▁herd": 5930,
      "▁hist": 5931,
      "▁hoar": 5932,
      "▁hurl": 5933,
      "▁keys": 5934,
      "▁lect": 5935,
      "▁lewd": 5936,
      "▁load": 5937,
      "▁lock": 5938,
      "▁lour": 5939,
      "▁mars": 5940,
      "▁misc": 5941,
      "▁mour": 5942,
      "▁omit": 5943,
      "▁owes": 5944,
      "▁pace": 5945,
      "▁palm": 5946,
      "▁pent": 5947,
      "▁pick": 5948,
      "▁pict": 5949,
      "▁pill": 5950,
      "▁pomp": 5951,
      "▁push": 5952,
      "▁rack": 5953,
      "▁rate": 5954,
      "▁rear": 5955,
      "▁rend": 5956,
      "▁robb": 5957,
      "▁sess": 5958,
      "▁shel": 5959,
      "▁shop": 5960,
      "▁shru": 5961,
      "▁smil": 5962,
      "▁soci": 5963,
      "▁soil": 5964,
      "▁surp": 5965,
      "▁tack": 5966,
      "▁term": 5967,
      "▁tied": 5968,
      "▁tops": 5969,
      "▁tree": 5970,
      "▁trim": 5971,
      "▁unre": 5972,
      "▁vast": 5973,
      "▁wave": 5974,
      "▁week": 5975,
      "▁wipe": 5976,
      "action": 5977,
      "egrity": 5978,
      "idered": 5979,
      "igonus": 5980,
      "isting": 5981,
      "nesday": 5982,
      "owards": 5983,
      "spurgh": 5984,
      "tering": 5985,
      "ventry": 5986,
      "▁Above": 5987,
      "▁Adieu": 5988,
      "▁BAGOT": 5989,
      "▁Bagot": 5990,
      "▁Blunt": 5991,
      "▁Canst": 5992,
      "▁Comes": 5993,
      "▁EXTON": 5994,
      "▁FITZW": 5995,
      "▁False": 5996,
      "▁Persu": 5997,
      "▁Raven": 5998,
      "▁Shalt": 5999,
      "▁Swear": 6000,
      "▁Thine": 6001,
      "▁Trust": 6002,
      "▁Welsh": 6003,
      "▁Women": 6004,
      "▁Yield": 6005,
      "▁abund": 6006,
      "▁accom": 6007,
      "▁alleg": 6008,
      "▁amain": 6009,
      "▁ambit": 6010,
      "▁apace": 6011,
      "▁array": 6012,
      "▁beams": 6013,
      "▁beats": 6014,
      "▁clock": 6015,
      "▁cozen": 6016,
      "▁crook": 6017,
      "▁disin": 6018,
      "▁divor": 6019,
      "▁droop": 6020,
      "▁eaten": 6021,
      "▁eight": 6022,
      "▁ended": 6023,
      "▁exped": 6024,
      "▁falls": 6025,
      "▁fever": 6026,
      "▁fiend": 6027,
      "▁frail": 6028,
      "▁frank": 6029,
      "▁frost": 6030,
      "▁gains": 6031,
      "▁gifts": 6032,
      "▁goose": 6033,
      "▁helps": 6034,
      "▁imper": 6035,
      "▁infer": 6036,
      "▁insol": 6037,
      "▁lambs": 6038,
      "▁likes": 6039,
      "▁lions": 6040,
      "▁lists": 6041,
      "▁merri": 6042,
      "▁mould": 6043,
      "▁ought": 6044,
      "▁paint": 6045,
      "▁petty": 6046,
      "▁philo": 6047,
      "▁plebe": 6048,
      "▁purge": 6049,
      "▁raven": 6050,
      "▁reach": 6051,
      "▁revel": 6052,
      "▁robes": 6053,
      "▁rouse": 6054,
      "▁saved": 6055,
      "▁ships": 6056,
      "▁shoes": 6057,
      "▁sides": 6058,
      "▁silly": 6059,
      "▁skill": 6060,
      "▁slipp": 6061,
      "▁stays": 6062,
      "▁stead": 6063,
      "▁stops": 6064,
      "▁tired": 6065,
      "▁towns": 6066,
      "▁train": 6067,
      "▁waked": 6068,
      "▁wears": 6069,
      "ceiving": 6070,
      "isement": 6071,
      "iveness": 6072,
      "mediate": 6073,
      "onstant": 6074,
      "umbling": 6075,
      "▁Appear": 6076,
      "▁Curtis": 6077,
      "▁GEORGE": 6078,
      "▁Gaoler": 6079,
      "▁Minola": 6080,
      "▁Nature": 6081,
      "▁SCROOP": 6082,
      "▁Things": 6083,
      "▁Venice": 6084,
      "▁afraid": 6085,
      "▁amends": 6086,
      "▁aspect": 6087,
      "▁attain": 6088,
      "▁beaten": 6089,
      "▁betide": 6090,
      "▁boldly": 6091,
      "▁bowels": 6092,
      "▁brains": 6093,
      "▁bridal": 6094,
      "▁cheque": 6095,
      "▁chosen": 6096,
      "▁cloudy": 6097,
      "▁couple": 6098,
      "▁dearer": 6099,
      "▁depose": 6100,
      "▁detest": 6101,
      "▁eldest": 6102,
      "▁eleven": 6103,
      "▁errand": 6104,
      "▁esteem": 6105,
      "▁except": 6106,
      "▁falcon": 6107,
      "▁figure": 6108,
      "▁fondly": 6109,
      "▁gladly": 6110,
      "▁hazard": 6111,
      "▁height": 6112,
      "▁herald": 6113,
      "▁homely": 6114,
      "▁kisses": 6115,
      "▁landed": 6116,
      "▁lately": 6117,
      "▁livest": 6118,
      "▁lovers": 6119,
      "▁marvel": 6120,
      "▁middle": 6121,
      "▁narrow": 6122,
      "▁nights": 6123,
      "▁notice": 6124,
      "▁obsequ": 6125,
      "▁prefer": 6126,
      "▁prodig": 6127,
      "▁prompt": 6128,
      "▁proved": 6129,
      "▁purple": 6130,
      "▁ransom": 6131,
      "▁reckon": 6132,
      "▁riches": 6133,
      "▁savage": 6134,
      "▁seated": 6135,
      "▁seized": 6136,
      "▁severe": 6137,
      "▁signal": 6138,
      "▁slight": 6139,
      "▁sounds": 6140,
      "▁spread": 6141,
      "▁stolen": 6142,
      "▁storms": 6143,
      "▁strict": 6144,
      "▁swears": 6145,
      "▁takest": 6146,
      "▁testim": 6147,
      "▁tricks": 6148,
      "▁troubl": 6149,
      "▁vanity": 6150,
      "▁varlet": 6151,
      "▁wisely": 6152,
      "MORELAND": 6153,
      "perience": 6154,
      "▁Becomes": 6155,
      "▁CALIBAN": 6156,
      "▁Caliban": 6157,
      "▁Captain": 6158,
      "▁Comfort": 6159,
      "▁Neither": 6160,
      "▁Perhaps": 6161,
      "▁Prepare": 6162,
      "▁STEPHEN": 6163,
      "▁Towards": 6164,
      "▁Whereof": 6165,
      "▁amongst": 6166,
      "▁amorous": 6167,
      "▁ashamed": 6168,
      "▁bidding": 6169,
      "▁blemish": 6170,
      "▁ceremon": 6171,
      "▁cheerly": 6172,
      "▁conclud": 6173,
      "▁consequ": 6174,
      "▁couldst": 6175,
      "▁designs": 6176,
      "▁earthly": 6177,
      "▁example": 6178,
      "▁extreme": 6179,
      "▁fantast": 6180,
      "▁favours": 6181,
      "▁fingers": 6182,
      "▁freedom": 6183,
      "▁furnish": 6184,
      "▁ghostly": 6185,
      "▁goddess": 6186,
      "▁grandam": 6187,
      "▁grieved": 6188,
      "▁grieves": 6189,
      "▁heavier": 6190,
      "▁holding": 6191,
      "▁hopeful": 6192,
      "▁kinsmen": 6193,
      "▁knowing": 6194,
      "▁learned": 6195,
      "▁marvell": 6196,
      "▁members": 6197,
      "▁mightst": 6198,
      "▁neglect": 6199,
      "▁ourself": 6200,
      "▁outrage": 6201,
      "▁parents": 6202,
      "▁parties": 6203,
      "▁partner": 6204,
      "▁poverty": 6205,
      "▁presume": 6206,
      "▁profane": 6207,
      "▁prophes": 6208,
      "▁provide": 6209,
      "▁restore": 6210,
      "▁retired": 6211,
      "▁scratch": 6212,
      "▁settled": 6213,
      "▁signify": 6214,
      "▁smother": 6215,
      "▁sounded": 6216,
      "▁sweetly": 6217,
      "▁temples": 6218,
      "▁tempted": 6219,
      "▁thieves": 6220,
      "▁travell": 6221,
      "▁weapons": 6222,
      "▁winters": 6223,
      "▁worldly": 6224,
      "▁Benvolio": 6225,
      "▁Burgundy": 6226,
      "▁CARLISLE": 6227,
      "▁Coventry": 6228,
      "▁Gardener": 6229,
      "▁Patience": 6230,
      "▁Proclaim": 6231,
      "▁Tribunes": 6232,
      "▁Withdraw": 6233,
      "▁attorney": 6234,
      "▁bastards": 6235,
      "▁boldness": 6236,
      "▁compound": 6237,
      "▁conclude": 6238,
      "▁confound": 6239,
      "▁conquest": 6240,
      "▁contents": 6241,
      "▁courtier": 6242,
      "▁cowardly": 6243,
      "▁darkness": 6244,
      "▁devilish": 6245,
      "▁entrance": 6246,
      "▁greeting": 6247,
      "▁likewise": 6248,
      "▁merchant": 6249,
      "▁mildness": 6250,
      "▁mutinous": 6251,
      "▁persuade": 6252,
      "▁piercing": 6253,
      "▁preserve": 6254,
      "▁provoked": 6255,
      "▁revenges": 6256,
      "▁speaking": 6257,
      "▁suddenly": 6258,
      "▁thankful": 6259,
      "▁treasons": 6260,
      "▁troubled": 6261,
      "▁usurping": 6262,
      "▁villains": 6263,
      "▁youthful": 6264,
      "▁Antigonus": 6265,
      "▁FITZWATER": 6266,
      "▁Vouchsafe": 6267,
      "▁Wednesday": 6268,
      "▁ambitious": 6269,
      "▁condemned": 6270,
      "▁constable": 6271,
      "▁departure": 6272,
      "▁downright": 6273,
      "▁instantly": 6274,
      "▁integrity": 6275,
      "▁ministers": 6276,
      "▁musicians": 6277,
      "▁nobleness": 6278,
      "▁readiness": 6279,
      "▁reconcile": 6280,
      "▁sentenced": 6281,
      "▁tyrannous": 6282,
      "▁wandering": 6283,
      "▁accusation": 6284,
      "▁acquainted": 6285,
      "▁allegiance": 6286,
      "▁complexion": 6287,
      "▁entreaties": 6288,
      "▁estimation": 6289,
      "▁flattering": 6290,
      "▁lamentable": 6291,
      "▁misfortune": 6292,
      "▁neighbours": 6293,
      "▁occupation": 6294,
      "▁philosophy": 6295,
      "▁pilgrimage": 6296,
      "▁recompense": 6297,
      "▁substitute": 6298,
      "▁sufficient": 6299,
      "▁unkindness": 6300,
      "▁Ravenspurgh": 6301,
      "▁approbation": 6302,
      "▁destruction": 6303,
      "▁WESTMORELAND": 6304,
      "▁circumstance": 6305,
      "▁discontented": 6306,
      "▁satisfaction": 6307,
      "br": 6308,
      "do": 6309,
      "eb": 6310,
      "uc": 6311,
      "ug": 6312,
      "Hic": 6313,
      "amy": 6314,
      "bot": 6315,
      "boy": 6316,
      "cra": 6317,
      "cus": 6318,
      "des": 6319,
      "gea": 6320,
      "gic": 6321,
      "inu": 6322,
      "len": 6323,
      "lor": 6324,
      "low": 6325,
      "off": 6326,
      "ril": 6327,
      "rop": 6328,
      "tin": 6329,
      "uiv": 6330,
      "urb": 6331,
      "uts": 6332,
      "wer": 6333,
      "▁Ac": 6334,
      "▁Er": 6335,
      "▁ug": 6336,
      "What": 6337,
      "alks": 6338,
      "ands": 6339,
      "aped": 6340,
      "back": 6341,
      "bour": 6342,
      "bric": 6343,
      "cest": 6344,
      "ctor": 6345,
      "done": 6346,
      "ella": 6347,
      "eves": 6348,
      "ewks": 6349,
      "gues": 6350,
      "hage": 6351,
      "hand": 6352,
      "hors": 6353,
      "icle": 6354,
      "ifth": 6355,
      "inal": 6356,
      "kest": 6357,
      "lain": 6358,
      "last": 6359,
      "lect": 6360,
      "lier": 6361,
      "made": 6362,
      "nday": 6363,
      "oble": 6364,
      "onio": 6365,
      "orax": 6366,
      "oriz": 6367,
      "oses": 6368,
      "rish": 6369,
      "tied": 6370,
      "ules": 6371,
      "uned": 6372,
      "unis": 6373,
      "vive": 6374,
      "wear": 6375,
      "work": 6376,
      "▁Adv": 6377,
      "▁Aff": 6378,
      "▁Che": 6379,
      "▁Dep": 6380,
      "▁Div": 6381,
      "▁Har": 6382,
      "▁Jup": 6383,
      "▁Mur": 6384,
      "▁Ned": 6385,
      "▁Pem": 6386,
      "▁Rel": 6387,
      "▁Sit": 6388,
      "▁Syc": 6389,
      "▁Tra": 6390,
      "▁ack": 6391,
      "▁afe": 6392,
      "▁ann": 6393,
      "▁ape": 6394,
      "▁ash": 6395,
      "▁bul": 6396,
      "▁dot": 6397,
      "▁eff": 6398,
      "▁fan": 6399,
      "▁fox": 6400,
      "▁fre": 6401,
      "▁hag": 6402,
      "▁key": 6403,
      "▁mas": 6404,
      "▁moe": 6405,
      "▁mom": 6406,
      "▁nod": 6407,
      "▁obs": 6408,
      "▁pow": 6409,
      "▁pup": 6410,
      "▁rhe": 6411,
      "▁rig": 6412,
      "▁rum": 6413,
      "▁sap": 6414,
      "▁sow": 6415,
      "▁thw": 6416,
      "▁tie": 6417,
      "▁vul": 6418,
      "Twixt": 6419,
      "aints": 6420,
      "amity": 6421,
      "asant": 6422,
      "avour": 6423,
      "awful": 6424,
      "aying": 6425,
      "board": 6426,
      "ening": 6427,
      "horse": 6428,
      "iders": 6429,
      "inces": 6430,
      "inies": 6431,
      "inted": 6432,
      "ively": 6433,
      "lance": 6434,
      "longs": 6435,
      "ocate": 6436,
      "oster": 6437,
      "peian": 6438,
      "ption": 6439,
      "roach": 6440,
      "shine": 6441,
      "sooth": 6442,
      "there": 6443,
      "trees": 6444,
      "ually": 6445,
      "uring": 6446,
      "water": 6447,
      "▁ABRA": 6448,
      "▁Best": 6449,
      "▁Bold": 6450,
      "▁Cart": 6451,
      "▁Cont": 6452,
      "▁Dest": 6453,
      "▁Fall": 6454,
      "▁Fell": 6455,
      "▁Foul": 6456,
      "▁Happ": 6457,
      "▁Kent": 6458,
      "▁Kind": 6459,
      "▁Lead": 6460,
      "▁Lend": 6461,
      "▁Lies": 6462,
      "▁Nept": 6463,
      "▁Over": 6464,
      "▁Purs": 6465,
      "▁Read": 6466,
      "▁Scot": 6467,
      "▁Talk": 6468,
      "▁Troy": 6469,
      "▁Wert": 6470,
      "▁West": 6471,
      "▁acts": 6472,
      "▁aims": 6473,
      "▁alar": 6474,
      "▁amaz": 6475,
      "▁baby": 6476,
      "▁bail": 6477,
      "▁bald": 6478,
      "▁blot": 6479,
      "▁blue": 6480,
      "▁bowl": 6481,
      "▁bows": 6482,
      "▁cler": 6483,
      "▁cool": 6484,
      "▁cord": 6485,
      "▁crab": 6486,
      "▁crim": 6487,
      "▁dash": 6488,
      "▁dece": 6489,
      "▁deer": 6490,
      "▁defy": 6491,
      "▁desc": 6492,
      "▁dine": 6493,
      "▁diso": 6494,
      "▁dole": 6495,
      "▁dram": 6496,
      "▁earl": 6497,
      "▁fift": 6498,
      "▁fulf": 6499,
      "▁game": 6500,
      "▁grim": 6501,
      "▁gust": 6502,
      "▁harl": 6503,
      "▁heel": 6504,
      "▁hill": 6505,
      "▁inch": 6506,
      "▁lads": 6507,
      "▁leap": 6508,
      "▁lick": 6509,
      "▁lief": 6510,
      "▁lute": 6511,
      "▁mask": 6512,
      "▁meal": 6513,
      "▁meed": 6514,
      "▁milk": 6515,
      "▁nigh": 6516,
      "▁noon": 6517,
      "▁nort": 6518,
      "▁obsc": 6519,
      "▁pant": 6520,
      "▁peer": 6521,
      "▁perd": 6522,
      "▁pest": 6523,
      "▁plan": 6524,
      "▁pour": 6525,
      "▁race": 6526,
      "▁ranc": 6527,
      "▁rein": 6528,
      "▁roof": 6529,
      "▁runs": 6530,
      "▁rush": 6531,
      "▁sack": 6532,
      "▁shot": 6533,
      "▁silk": 6534,
      "▁sixt": 6535,
      "▁song": 6536,
      "▁stag": 6537,
      "▁summ": 6538,
      "▁terr": 6539,
      "▁torn": 6540,
      "▁trow": 6541,
      "▁undo": 6542,
      "▁vass": 6543,
      "▁veil": 6544,
      "▁vial": 6545,
      "▁welc": 6546,
      "▁yare": 6547,
      "BISHOP": 6548,
      "Zounds": 6549,
      "advent": 6550,
      "aments": 6551,
      "anders": 6552,
      "arried": 6553,
      "attern": 6554,
      "enches": 6555,
      "govern": 6556,
      "iments": 6557,
      "ittany": 6558,
      "lihood": 6559,
      "ossess": 6560,
      "ousins": 6561,
      "rament": 6562,
      "rantic": 6563,
      "twould": 6564,
      "uivant": 6565,
      "ulting": 6566,
      "▁Alban": 6567,
      "▁Ariel": 6568,
      "▁Bound": 6569,
      "▁Break": 6570,
      "▁Cupid": 6571,
      "▁Fetch": 6572,
      "▁Gives": 6573,
      "▁Ready": 6574,
      "▁Teach": 6575,
      "▁Tewks": 6576,
      "▁Thank": 6577,
      "▁Throw": 6578,
      "▁Touch": 6579,
      "▁Truly": 6580,
      "▁Tunis": 6581,
      "▁Twice": 6582,
      "▁aloud": 6583,
      "▁apart": 6584,
      "▁arise": 6585,
      "▁ashes": 6586,
      "▁blaze": 6587,
      "▁bliss": 6588,
      "▁blown": 6589,
      "▁brand": 6590,
      "▁cabin": 6591,
      "▁canop": 6592,
      "▁champ": 6593,
      "▁chose": 6594,
      "▁clean": 6595,
      "▁cloak": 6596,
      "▁coast": 6597,
      "▁cords": 6598,
      "▁crept": 6599,
      "▁crows": 6600,
      "▁crush": 6601,
      "▁cushi": 6602,
      "▁diest": 6603,
      "▁dined": 6604,
      "▁dried": 6605,
      "▁drift": 6606,
      "▁dukes": 6607,
      "▁eager": 6608,
      "▁evils": 6609,
      "▁faced": 6610,
      "▁fleet": 6611,
      "▁flock": 6612,
      "▁folks": 6613,
      "▁fount": 6614,
      "▁front": 6615,
      "▁fully": 6616,
      "▁gaunt": 6617,
      "▁grass": 6618,
      "▁groom": 6619,
      "▁haunt": 6620,
      "▁kites": 6621,
      "▁level": 6622,
      "▁linea": 6623,
      "▁lodge": 6624,
      "▁lowly": 6625,
      "▁mates": 6626,
      "▁medic": 6627,
      "▁midst": 6628,
      "▁model": 6629,
      "▁moody": 6630,
      "▁mouse": 6631,
      "▁murde": 6632,
      "▁nails": 6633,
      "▁named": 6634,
      "▁pearl": 6635,
      "▁pilot": 6636,
      "▁pinch": 6637,
      "▁prate": 6638,
      "▁print": 6639,
      "▁puiss": 6640,
      "▁rests": 6641,
      "▁roses": 6642,
      "▁sadly": 6643,
      "▁score": 6644,
      "▁seeks": 6645,
      "▁shade": 6646,
      "▁shown": 6647,
      "▁slily": 6648,
      "▁spark": 6649,
      "▁spurs": 6650,
      "▁stark": 6651,
      "▁steep": 6652,
      "▁stiff": 6653,
      "▁stink": 6654,
      "▁surpr": 6655,
      "▁swoon": 6656,
      "▁tardy": 6657,
      "▁theme": 6658,
      "▁tiger": 6659,
      "▁toads": 6660,
      "▁trees": 6661,
      "▁tutor": 6662,
      "▁unpro": 6663,
      "▁vouch": 6664,
      "▁waits": 6665,
      "▁whist": 6666,
      "▁worms": 6667,
      "▁wring": 6668,
      "advised": 6669,
      "angling": 6670,
      "emption": 6671,
      "ication": 6672,
      "racious": 6673,
      "rateful": 6674,
      "▁Answer": 6675,
      "▁Antium": 6676,
      "▁Bishop": 6677,
      "▁Murder": 6678,
      "▁Stands": 6679,
      "▁Sunday": 6680,
      "▁Virtue": 6681,
      "▁Walter": 6682,
      "▁abhorr": 6683,
      "▁accomp": 6684,
      "▁acknow": 6685,
      "▁afeard": 6686,
      "▁ancest": 6687,
      "▁angels": 6688,
      "▁asking": 6689,
      "▁belong": 6690,
      "▁bereft": 6691,
      "▁beside": 6692,
      "▁bestri": 6693,
      "▁bosoms": 6694,
      "▁bounty": 6695,
      "▁branch": 6696,
      "▁breaks": 6697,
      "▁burden": 6698,
      "▁butter": 6699,
      "▁causes": 6700,
      "▁closed": 6701,
      "▁crying": 6702,
      "▁dearth": 6703,
      "▁deform": 6704,
      "▁depend": 6705,
      "▁devils": 6706,
      "▁devour": 6707,
      "▁distra": 6708,
      "▁easily": 6709,
      "▁embass": 6710,
      "▁enrich": 6711,
      "▁exceed": 6712,
      "▁fallen": 6713,
      "▁feasts": 6714,
      "▁framed": 6715,
      "▁frozen": 6716,
      "▁gather": 6717,
      "▁graces": 6718,
      "▁growth": 6719,
      "▁herein": 6720,
      "▁hinder": 6721,
      "▁insinu": 6722,
      "▁invent": 6723,
      "▁inward": 6724,
      "▁knocks": 6725,
      "▁leaden": 6726,
      "▁lenity": 6727,
      "▁lights": 6728,
      "▁linger": 6729,
      "▁lodged": 6730,
      "▁magist": 6731,
      "▁meaner": 6732,
      "▁mildly": 6733,
      "▁moiety": 6734,
      "▁moment": 6735,
      "▁moving": 6736,
      "▁nimble": 6737,
      "▁orator": 6738,
      "▁patron": 6739,
      "▁pedlar": 6740,
      "▁pitied": 6741,
      "▁plants": 6742,
      "▁pursue": 6743,
      "▁reigns": 6744,
      "▁resemb": 6745,
      "▁rushes": 6746,
      "▁safely": 6747,
      "▁search": 6748,
      "▁speedy": 6749,
      "▁spider": 6750,
      "▁stocks": 6751,
      "▁strife": 6752,
      "▁taking": 6753,
      "▁taunts": 6754,
      "▁temple": 6755,
      "▁thrown": 6756,
      "▁unlike": 6757,
      "▁unlook": 6758,
      "▁unluck": 6759,
      "▁unruly": 6760,
      "▁unseen": 6761,
      "▁utmost": 6762,
      "▁watery": 6763,
      "▁wedded": 6764,
      "▁window": 6765,
      "▁worser": 6766,
      "▁yester": 6767,
      "isterous": 6768,
      "shearing": 6769,
      "standing": 6770,
      "▁ABRAHAM": 6771,
      "▁Antonio": 6772,
      "▁Command": 6773,
      "▁Confess": 6774,
      "▁Content": 6775,
      "▁Courage": 6776,
      "▁Jupiter": 6777,
      "▁Mistake": 6778,
      "▁Neptune": 6779,
      "▁Prosper": 6780,
      "▁Suppose": 6781,
      "▁Sycorax": 6782,
      "▁Thyself": 6783,
      "▁adverse": 6784,
      "▁afflict": 6785,
      "▁appears": 6786,
      "▁avoided": 6787,
      "▁battles": 6788,
      "▁beggars": 6789,
      "▁bending": 6790,
      "▁breasts": 6791,
      "▁carries": 6792,
      "▁chances": 6793,
      "▁charges": 6794,
      "▁climate": 6795,
      "▁compare": 6796,
      "▁dancing": 6797,
      "▁destiny": 6798,
      "▁dissemb": 6799,
      "▁disturb": 6800,
      "▁endured": 6801,
      "▁eternal": 6802,
      "▁falling": 6803,
      "▁fifteen": 6804,
      "▁frantic": 6805,
      "▁glasses": 6806,
      "▁hangman": 6807,
      "▁harbour": 6808,
      "▁harmony": 6809,
      "▁harvest": 6810,
      "▁heinous": 6811,
      "▁history": 6812,
      "▁ignoble": 6813,
      "▁impeach": 6814,
      "▁inquire": 6815,
      "▁intents": 6816,
      "▁lasting": 6817,
      "▁leaving": 6818,
      "▁loathed": 6819,
      "▁lodging": 6820,
      "▁loyalty": 6821,
      "▁lunatic": 6822,
      "▁manhood": 6823,
      "▁marshal": 6824,
      "▁midwife": 6825,
      "▁minutes": 6826,
      "▁mothers": 6827,
      "▁murders": 6828,
      "▁mustard": 6829,
      "▁numbers": 6830,
      "▁persons": 6831,
      "▁popular": 6832,
      "▁prating": 6833,
      "▁pursuit": 6834,
      "▁quarter": 6835,
      "▁require": 6836,
      "▁revenue": 6837,
      "▁roaring": 6838,
      "▁secrets": 6839,
      "▁serious": 6840,
      "▁serpent": 6841,
      "▁sitting": 6842,
      "▁sixteen": 6843,
      "▁springs": 6844,
      "▁steward": 6845,
      "▁support": 6846,
      "▁surfeit": 6847,
      "▁talking": 6848,
      "▁thereto": 6849,
      "▁trifles": 6850,
      "▁venture": 6851,
      "▁wronged": 6852,
      "adventure": 6853,
      "▁Brittany": 6854,
      "▁Capulets": 6855,
      "▁Carthage": 6856,
      "▁Isabella": 6857,
      "▁Pembroke": 6858,
      "▁Scotland": 6859,
      "▁Sometime": 6860,
      "▁Tarpeian": 6861,
      "▁Volscian": 6862,
      "▁advanced": 6863,
      "▁advocate": 6864,
      "▁approved": 6865,
      "▁attended": 6866,
      "▁believed": 6867,
      "▁blushing": 6868,
      "▁branches": 6869,
      "▁calamity": 6870,
      "▁changing": 6871,
      "▁chiefest": 6872,
      "▁commands": 6873,
      "▁commends": 6874,
      "▁concerns": 6875,
      "▁confeder": 6876,
      "▁cracking": 6877,
      "▁damnable": 6878,
      "▁delicate": 6879,
      "▁despised": 6880,
      "▁distress": 6881,
      "▁doubtful": 6882,
      "▁downfall": 6883,
      "▁drinking": 6884,
      "▁enforced": 6885,
      "▁entreaty": 6886,
      "▁everlast": 6887,
      "▁extremes": 6888,
      "▁familiar": 6889,
      "▁forehead": 6890,
      "▁forsooth": 6891,
      "▁humility": 6892,
      "▁incensed": 6893,
      "▁infected": 6894,
      "▁learning": 6895,
      "▁manifest": 6896,
      "▁mischief": 6897,
      "▁mountain": 6898,
      "▁murdered": 6899,
      "▁musician": 6900,
      "▁nighting": 6901,
      "▁northern": 6902,
      "▁offences": 6903,
      "▁perjured": 6904,
      "▁prophecy": 6905,
      "▁prophesy": 6906,
      "▁proudest": 6907,
      "▁provided": 6908,
      "▁recreant": 6909,
      "▁reported": 6910,
      "▁sensible": 6911,
      "▁singular": 6912,
      "▁smallest": 6913,
      "▁statutes": 6914,
      "▁sweetest": 6915,
      "▁swelling": 6916,
      "▁unworthy": 6917,
      "▁whoreson": 6918,
      "▁wrinkled": 6919,
      "▁yielding": 6920,
      "▁Montagues": 6921,
      "▁Tewksbury": 6922,
      "▁Volscians": 6923,
      "▁afterward": 6924,
      "▁confessor": 6925,
      "▁conqueror": 6926,
      "▁discharge": 6927,
      "▁disgraced": 6928,
      "▁guiltless": 6929,
      "▁injustice": 6930,
      "▁innocence": 6931,
      "▁interrupt": 6932,
      "▁loathsome": 6933,
      "▁multitude": 6934,
      "▁murderous": 6935,
      "▁ornaments": 6936,
      "▁otherwise": 6937,
      "▁plebeians": 6938,
      "▁royalties": 6939,
      "▁sacrament": 6940,
      "▁safeguard": 6941,
      "▁shoulders": 6942,
      "▁suffering": 6943,
      "▁thousands": 6944,
      "▁unwilling": 6945,
      "▁wonderful": 6946,
      "▁ARCHBISHOP": 6947,
      "▁Lieutenant": 6948,
      "▁boisterous": 6949,
      "▁compassion": 6950,
      "▁conclusion": 6951,
      "▁confession": 6952,
      "▁confidence": 6953,
      "▁considered": 6954,
      "▁correction": 6955,
      "▁corruption": 6956,
      "▁counsellor": 6957,
      "▁flatterers": 6958,
      "▁friendship": 6959,
      "▁henceforth": 6960,
      "▁likelihood": 6961,
      "▁marvellous": 6962,
      "▁oppression": 6963,
      "▁perfection": 6964,
      "▁prosperity": 6965,
      "▁redemption": 6966,
      "▁revengeful": 6967,
      "▁slanderous": 6968,
      "▁sufferance": 6969,
      "▁tenderness": 6970,
      "▁visitation": 6971,
      "▁whatsoever": 6972,
      "▁whispering": 6973,
      "▁brotherhood": 6974,
      "▁ceremonious": 6975,
      "▁consequence": 6976,
      "▁displeasure": 6977,
      "▁imagination": 6978,
      "▁lamentation": 6979,
      "▁proceedings": 6980,
      "Be": 6981,
      "He": 6982,
      "St": 6983,
      "cr": 6984,
      "ex": 6985,
      "lm": 6986,
      "lu": 6987,
      "ph": 6988,
      "AGE": 6989,
      "ANI": 6990,
      "ONA": 6991,
      "REY": 6992,
      "The": 6993,
      "ado": 6994,
      "ais": 6995,
      "ald": 6996,
      "ank": 6997,
      "asy": 6998,
      "ato": 6999,
      "aws": 7000,
      "bid": 7001,
      "cat": 7002,
      "cel": 7003,
      "cip": 7004,
      "cis": 7005,
      "civ": 7006,
      "eks": 7007,
      "eny": 7008,
      "hur": 7009,
      "idd": 7010,
      "iel": 7011,
      "imo": 7012,
      "ims": 7013,
      "iqu": 7014,
      "isk": 7015,
      "jud": 7016,
      "key": 7017,
      "lip": 7018,
      "met": 7019,
      "mph": 7020,
      "ops": 7021,
      "rge": 7022,
      "ros": 7023,
      "rup": 7024,
      "ted": 7025,
      "thw": 7026,
      "uge": 7027,
      "ule": 7028,
      "ums": 7029,
      "wit": 7030,
      "▁Ag": 7031,
      "▁Cy": 7032,
      "▁Du": 7033,
      "▁EM": 7034,
      "▁Ro": 7035,
      "▁av": 7036,
      "▁hy": 7037,
      "▁om": 7038,
      "▁vi": 7039,
      "Gain": 7040,
      "This": 7041,
      "adem": 7042,
      "atri": 7043,
      "azon": 7044,
      "bell": 7045,
      "bles": 7046,
      "cast": 7047,
      "cock": 7048,
      "core": 7049,
      "cund": 7050,
      "duce": 7051,
      "ebus": 7052,
      "ffer": 7053,
      "gage": 7054,
      "ghts": 7055,
      "gled": 7056,
      "good": 7057,
      "gory": 7058,
      "gued": 7059,
      "iner": 7060,
      "inew": 7061,
      "ingu": 7062,
      "itty": 7063,
      "ival": 7064,
      "izab": 7065,
      "kens": 7066,
      "lled": 7067,
      "look": 7068,
      "loqu": 7069,
      "love": 7070,
      "miss": 7071,
      "mpet": 7072,
      "odow": 7073,
      "olar": 7074,
      "olve": 7075,
      "omin": 7076,
      "peci": 7077,
      "phan": 7078,
      "pped": 7079,
      "ppet": 7080,
      "pret": 7081,
      "quet": 7082,
      "quis": 7083,
      "reth": 7084,
      "rial": 7085,
      "rief": 7086,
      "rion": 7087,
      "ropp": 7088,
      "seem": 7089,
      "seth": 7090,
      "side": 7091,
      "sion": 7092,
      "sses": 7093,
      "uced": 7094,
      "umes": 7095,
      "umny": 7096,
      "umps": 7097,
      "ungs": 7098,
      "upon": 7099,
      "urer": 7100,
      "urvy": 7101,
      "voke": 7102,
      "will": 7103,
      "xton": 7104,
      "your": 7105,
      "▁Any": 7106,
      "▁Arm": 7107,
      "▁Ass": 7108,
      "▁Bad": 7109,
      "▁Ban": 7110,
      "▁Def": 7111,
      "▁Dor": 7112,
      "▁End": 7113,
      "▁Fly": 7114,
      "▁Ill": 7115,
      "▁Ins": 7116,
      "▁Jer": 7117,
      "▁Jud": 7118,
      "▁Jun": 7119,
      "▁Lam": 7120,
      "▁Pha": 7121,
      "▁Pho": 7122,
      "▁Red": 7123,
      "▁Ren": 7124,
      "▁Run": 7125,
      "▁SUR": 7126,
      "▁Sin": 7127,
      "▁Tur": 7128,
      "▁box": 7129,
      "▁coz": 7130,
      "▁ded": 7131,
      "▁der": 7132,
      "▁dil": 7133,
      "▁ebb": 7134,
      "▁fem": 7135,
      "▁fet": 7136,
      "▁fif": 7137,
      "▁gaz": 7138,
      "▁haw": 7139,
      "▁ire": 7140,
      "▁kna": 7141,
      "▁mum": 7142,
      "▁non": 7143,
      "▁obt": 7144,
      "▁pox": 7145,
      "▁ren": 7146,
      "▁stu": 7147,
      "▁tax": 7148,
      "▁tea": 7149,
      "▁toe": 7150,
      "▁ton": 7151,
      "▁toy": 7152,
      "▁tur": 7153,
      "▁vig": 7154,
      "ANIEL": 7155,
      "Twill": 7156,
      "aches": 7157,
      "adise": 7158,
      "alion": 7159,
      "allel": 7160,
      "andle": 7161,
      "antle": 7162,
      "asing": 7163,
      "athom": 7164,
      "blown": 7165,
      "chool": 7166,
      "craft": 7167,
      "echer": 7168,
      "eches": 7169,
      "ethon": 7170,
      "feits": 7171,
      "glass": 7172,
      "gnant": 7173,
      "grown": 7174,
      "habit": 7175,
      "heard": 7176,
      "holds": 7177,
      "icial": 7178,
      "iding": 7179,
      "illed": 7180,
      "isome": 7181,
      "ivers": 7182,
      "licit": 7183,
      "lling": 7184,
      "neath": 7185,
      "nsion": 7186,
      "opher": 7187,
      "overy": 7188,
      "plish": 7189,
      "ptory": 7190,
      "rails": 7191,
      "rieve": 7192,
      "runes": 7193,
      "scals": 7194,
      "scape": 7195,
      "ships": 7196,
      "stone": 7197,
      "strel": 7198,
      "thing": 7199,
      "throw": 7200,
      "tised": 7201,
      "verse": 7202,
      "versy": 7203,
      "whelm": 7204,
      "where": 7205,
      "▁BONA": 7206,
      "▁Back": 7207,
      "▁Cher": 7208,
      "▁Cold": 7209,
      "▁DION": 7210,
      "▁Fill": 7211,
      "▁Fran": 7212,
      "▁Gold": 7213,
      "▁Harp": 7214,
      "▁Herc": 7215,
      "▁High": 7216,
      "▁Holy": 7217,
      "▁Host": 7218,
      "▁Join": 7219,
      "▁Just": 7220,
      "▁Left": 7221,
      "▁NATH": 7222,
      "▁Obey": 7223,
      "▁Open": 7224,
      "▁PAGE": 7225,
      "▁Pres": 7226,
      "▁Prof": 7227,
      "▁Rest": 7228,
      "▁Urge": 7229,
      "▁abod": 7230,
      "▁abst": 7231,
      "▁airy": 7232,
      "▁alto": 7233,
      "▁answ": 7234,
      "▁arch": 7235,
      "▁awry": 7236,
      "▁beet": 7237,
      "▁boon": 7238,
      "▁bush": 7239,
      "▁cann": 7240,
      "▁card": 7241,
      "▁cave": 7242,
      "▁chaf": 7243,
      "▁chap": 7244,
      "▁chop": 7245,
      "▁clap": 7246,
      "▁coal": 7247,
      "▁crew": 7248,
      "▁cuck": 7249,
      "▁dame": 7250,
      "▁diet": 7251,
      "▁doct": 7252,
      "▁dumb": 7253,
      "▁farm": 7254,
      "▁feat": 7255,
      "▁fest": 7256,
      "▁fits": 7257,
      "▁foil": 7258,
      "▁fold": 7259,
      "▁forn": 7260,
      "▁gait": 7261,
      "▁gaol": 7262,
      "▁gape": 7263,
      "▁geld": 7264,
      "▁gulf": 7265,
      "▁hall": 7266,
      "▁halt": 7267,
      "▁heap": 7268,
      "▁hole": 7269,
      "▁hood": 7270,
      "▁idly": 7271,
      "▁inve": 7272,
      "▁jade": 7273,
      "▁knit": 7274,
      "▁lace": 7275,
      "▁levy": 7276,
      "▁liar": 7277,
      "▁link": 7278,
      "▁liqu": 7279,
      "▁male": 7280,
      "▁marr": 7281,
      "▁mast": 7282,
      "▁moan": 7283,
      "▁muff": 7284,
      "▁negl": 7285,
      "▁obst": 7286,
      "▁pate": 7287,
      "▁pays": 7288,
      "▁perf": 7289,
      "▁pine": 7290,
      "▁prec": 7291,
      "▁puff": 7292,
      "▁pull": 7293,
      "▁rats": 7294,
      "▁rent": 7295,
      "▁ridd": 7296,
      "▁rode": 7297,
      "▁sear": 7298,
      "▁sequ": 7299,
      "▁sith": 7300,
      "▁spar": 7301,
      "▁sped": 7302,
      "▁stem": 7303,
      "▁sued": 7304,
      "▁sugg": 7305,
      "▁sung": 7306,
      "▁syll": 7307,
      "▁tink": 7308,
      "▁ugly": 7309,
      "▁unth": 7310,
      "▁vine": 7311,
      "▁warn": 7312,
      "▁wasp": 7313,
      "▁weal": 7314,
      "▁weed": 7315,
      "▁whet": 7316,
      "Gainst": 7317,
      "actors": 7318,
      "ailing": 7319,
      "aining": 7320,
      "antime": 7321,
      "apable": 7322,
      "arison": 7323,
      "asures": 7324,
      "bearer": 7325,
      "cedent": 7326,
      "chelor": 7327,
      "elting": 7328,
      "erving": 7329,
      "estern": 7330,
      "franch": 7331,
      "iquity": 7332,
      "ivered": 7333,
      "leness": 7334,
      "liness": 7335,
      "mongst": 7336,
      "omenes": 7337,
      "orizel": 7338,
      "otless": 7339,
      "ouches": 7340,
      "piring": 7341,
      "randam": 7342,
      "ressed": 7343,
      "rician": 7344,
      "riment": 7345,
      "strong": 7346,
      "terate": 7347,
      "ueless": 7348,
      "uments": 7349,
      "voided": 7350,
      "witted": 7351,
      "▁Again": 7352,
      "▁Arise": 7353,
      "▁Carry": 7354,
      "▁Every": 7355,
      "▁Fifth": 7356,
      "▁Flore": 7357,
      "▁Forth": 7358,
      "▁Groom": 7359,
      "▁Infer": 7360,
      "▁Knock": 7361,
      "▁Lodow": 7362,
      "▁Lovel": 7363,
      "▁Mercy": 7364,
      "▁Percy": 7365,
      "▁Seize": 7366,
      "▁Shame": 7367,
      "▁Sixth": 7368,
      "▁Smile": 7369,
      "▁Tarqu": 7370,
      "▁Wales": 7371,
      "▁Whate": 7372,
      "▁Worse": 7373,
      "▁Write": 7374,
      "▁actor": 7375,
      "▁admir": 7376,
      "▁admit": 7377,
      "▁afoot": 7378,
      "▁afore": 7379,
      "▁allay": 7380,
      "▁aloof": 7381,
      "▁amend": 7382,
      "▁antic": 7383,
      "▁apply": 7384,
      "▁arbit": 7385,
      "▁argos": 7386,
      "▁armed": 7387,
      "▁beads": 7388,
      "▁befal": 7389,
      "▁begot": 7390,
      "▁blade": 7391,
      "▁bleed": 7392,
      "▁bodes": 7393,
      "▁bount": 7394,
      "▁brass": 7395,
      "▁brawl": 7396,
      "▁bribe": 7397,
      "▁broad": 7398,
      "▁budge": 7399,
      "▁chest": 7400,
      "▁climb": 7401,
      "▁coals": 7402,
      "▁crest": 7403,
      "▁dared": 7404,
      "▁decay": 7405,
      "▁doors": 7406,
      "▁doves": 7407,
      "▁draws": 7408,
      "▁drows": 7409,
      "▁eloqu": 7410,
      "▁embra": 7411,
      "▁error": 7412,
      "▁exact": 7413,
      "▁fills": 7414,
      "▁filth": 7415,
      "▁flame": 7416,
      "▁foret": 7417,
      "▁graft": 7418,
      "▁greyh": 7419,
      "▁hatch": 7420,
      "▁hazel": 7421,
      "▁hears": 7422,
      "▁hedge": 7423,
      "▁heigh": 7424,
      "▁herbs": 7425,
      "▁holid": 7426,
      "▁imped": 7427,
      "▁impud": 7428,
      "▁lends": 7429,
      "▁locks": 7430,
      "▁loins": 7431,
      "▁loose": 7432,
      "▁lungs": 7433,
      "▁madly": 7434,
      "▁magic": 7435,
      "▁miles": 7436,
      "▁musty": 7437,
      "▁noses": 7438,
      "▁notes": 7439,
      "▁penny": 7440,
      "▁perem": 7441,
      "▁plate": 7442,
      "▁prays": 7443,
      "▁privy": 7444,
      "▁pupil": 7445,
      "▁quake": 7446,
      "▁rages": 7447,
      "▁rebel": 7448,
      "▁relig": 7449,
      "▁repet": 7450,
      "▁ripen": 7451,
      "▁rites": 7452,
      "▁rocks": 7453,
      "▁safer": 7454,
      "▁sands": 7455,
      "▁saucy": 7456,
      "▁scape": 7457,
      "▁scour": 7458,
      "▁separ": 7459,
      "▁shift": 7460,
      "▁shout": 7461,
      "▁siege": 7462,
      "▁signs": 7463,
      "▁sinew": 7464,
      "▁slack": 7465,
      "▁spilt": 7466,
      "▁split": 7467,
      "▁staff": 7468,
      "▁stirs": 7469,
      "▁sugar": 7470,
      "▁tamed": 7471,
      "▁tents": 7472,
      "▁thres": 7473,
      "▁token": 7474,
      "▁tower": 7475,
      "▁treat": 7476,
      "▁tried": 7477,
      "▁truer": 7478,
      "▁unple": 7479,
      "▁using": 7480,
      "▁value": 7481,
      "▁waken": 7482,
      "▁wheel": 7483,
      "▁whipt": 7484,
      "enerate": 7485,
      "entious": 7486,
      "fulness": 7487,
      "herited": 7488,
      "itories": 7489,
      "izabeth": 7490,
      "kenbury": 7491,
      "picious": 7492,
      "shining": 7493,
      "venient": 7494,
      "▁Attend": 7495,
      "▁Belike": 7496,
      "▁Calais": 7497,
      "▁Commit": 7498,
      "▁Cursed": 7499,
      "▁Darest": 7500,
      "▁Direct": 7501,
      "▁EMILIA": 7502,
      "▁Emilia": 7503,
      "▁Enough": 7504,
      "▁Forbid": 7505,
      "▁Greece": 7506,
      "▁Hector": 7507,
      "▁Herald": 7508,
      "▁Neighb": 7509,
      "▁Renown": 7510,
      "▁Repent": 7511,
      "▁SURREY": 7512,
      "▁Twenty": 7513,
      "▁Verily": 7514,
      "▁agreed": 7515,
      "▁allies": 7516,
      "▁anchor": 7517,
      "▁appell": 7518,
      "▁ashore": 7519,
      "▁assemb": 7520,
      "▁attent": 7521,
      "▁befits": 7522,
      "▁beseem": 7523,
      "▁beware": 7524,
      "▁bishop": 7525,
      "▁bleeds": 7526,
      "▁bought": 7527,
      "▁braved": 7528,
      "▁canker": 7529,
      "▁canopy": 7530,
      "▁caused": 7531,
      "▁centre": 7532,
      "▁chains": 7533,
      "▁chival": 7534,
      "▁coldly": 7535,
      "▁combat": 7536,
      "▁confer": 7537,
      "▁contri": 7538,
      "▁create": 7539,
      "▁darken": 7540,
      "▁debase": 7541,
      "▁deeper": 7542,
      "▁deeply": 7543,
      "▁defect": 7544,
      "▁denial": 7545,
      "▁device": 7546,
      "▁diadem": 7547,
      "▁dragon": 7548,
      "▁dreamt": 7549,
      "▁dwells": 7550,
      "▁entire": 7551,
      "▁events": 7552,
      "▁famish": 7553,
      "▁female": 7554,
      "▁fights": 7555,
      "▁firmly": 7556,
      "▁fitted": 7557,
      "▁forces": 7558,
      "▁forest": 7559,
      "▁fouler": 7560,
      "▁gaoler": 7561,
      "▁gloves": 7562,
      "▁harlot": 7563,
      "▁higher": 7564,
      "▁homage": 7565,
      "▁horror": 7566,
      "▁hunger": 7567,
      "▁impart": 7568,
      "▁infirm": 7569,
      "▁issued": 7570,
      "▁jocund": 7571,
      "▁killed": 7572,
      "▁latest": 7573,
      "▁limits": 7574,
      "▁looker": 7575,
      "▁louder": 7576,
      "▁madest": 7577,
      "▁madman": 7578,
      "▁malign": 7579,
      "▁marble": 7580,
      "▁mellow": 7581,
      "▁merely": 7582,
      "▁minded": 7583,
      "▁mutiny": 7584,
      "▁napkin": 7585,
      "▁naught": 7586,
      "▁needle": 7587,
      "▁nobler": 7588,
      "▁nursed": 7589,
      "▁obtain": 7590,
      "▁orphan": 7591,
      "▁pedant": 7592,
      "▁permit": 7593,
      "▁pledge": 7594,
      "▁plucks": 7595,
      "▁pocket": 7596,
      "▁pounds": 7597,
      "▁prerog": 7598,
      "▁profan": 7599,
      "▁prunes": 7600,
      "▁puppet": 7601,
      "▁quaint": 7602,
      "▁queens": 7603,
      "▁ragged": 7604,
      "▁raging": 7605,
      "▁rebuke": 7606,
      "▁render": 7607,
      "▁rescue": 7608,
      "▁resort": 7609,
      "▁rising": 7610,
      "▁rivers": 7611,
      "▁sayest": 7612,
      "▁scorns": 7613,
      "▁shower": 7614,
      "▁shriek": 7615,
      "▁shrink": 7616,
      "▁silken": 7617,
      "▁skulls": 7618,
      "▁sleeps": 7619,
      "▁sleepy": 7620,
      "▁solely": 7621,
      "▁spices": 7622,
      "▁starve": 7623,
      "▁strait": 7624,
      "▁stream": 7625,
      "▁street": 7626,
      "▁succor": 7627,
      "▁sunder": 7628,
      "▁suppli": 7629,
      "▁sweets": 7630,
      "▁tailor": 7631,
      "▁thorns": 7632,
      "▁threes": 7633,
      "▁trades": 7634,
      "▁tumble": 7635,
      "▁turned": 7636,
      "▁unborn": 7637,
      "▁unrest": 7638,
      "▁vassal": 7639,
      "▁volume": 7640,
      "▁vulgar": 7641,
      "▁widows": 7642,
      "▁wilful": 7643,
      "▁winged": 7644,
      "▁wisest": 7645,
      "▁woeful": 7646,
      "▁wolves": 7647,
      "ervation": 7648,
      "ifferent": 7649,
      "osterous": 7650,
      "pecially": 7651,
      "▁Advance": 7652,
      "▁Amongst": 7653,
      "▁Beshrew": 7654,
      "▁Between": 7655,
      "▁Betwixt": 7656,
      "▁Condemn": 7657,
      "▁Forbear": 7658,
      "▁Francis": 7659,
      "▁Grandam": 7660,
      "▁Gregory": 7661,
      "▁Masters": 7662,
      "▁Measure": 7663,
      "▁Phoebus": 7664,
      "▁achieve": 7665,
      "▁appoint": 7666,
      "▁assault": 7667,
      "▁baggage": 7668,
      "▁banquet": 7669,
      "▁beastly": 7670,
      "▁beating": 7671,
      "▁beguile": 7672,
      "▁blister": 7673,
      "▁calumny": 7674,
      "▁capital": 7675,
      "▁captive": 7676,
      "▁changes": 7677,
      "▁closely": 7678,
      "▁conspir": 7679,
      "▁contrad": 7680,
      "▁cordial": 7681,
      "▁council": 7682,
      "▁counted": 7683,
      "▁cousins": 7684,
      "▁created": 7685,
      "▁cuckold": 7686,
      "▁curious": 7687,
      "▁curtain": 7688,
      "▁dangers": 7689,
      "▁deceive": 7690,
      "▁degrees": 7691,
      "▁demands": 7692,
      "▁direful": 7693,
      "▁disobed": 7694,
      "▁divided": 7695,
      "▁divines": 7696,
      "▁divorce": 7697,
      "▁earldom": 7698,
      "▁exclaim": 7699,
      "▁faction": 7700,
      "▁faintly": 7701,
      "▁falsely": 7702,
      "▁fasting": 7703,
      "▁feeding": 7704,
      "▁follies": 7705,
      "▁footman": 7706,
      "▁forsake": 7707,
      "▁gentler": 7708,
      "▁getting": 7709,
      "▁glories": 7710,
      "▁happier": 7711,
      "▁haughty": 7712,
      "▁hideous": 7713,
      "▁highway": 7714,
      "▁hurried": 7715,
      "▁infring": 7716,
      "▁inherit": 7717,
      "▁knowest": 7718,
      "▁lecture": 7719,
      "▁lightly": 7720,
      "▁longest": 7721,
      "▁lustful": 7722,
      "▁matters": 7723,
      "▁merrily": 7724,
      "▁mockery": 7725,
      "▁mocking": 7726,
      "▁natures": 7727,
      "▁notwith": 7728,
      "▁nourish": 7729,
      "▁pardons": 7730,
      "▁pastime": 7731,
      "▁pattern": 7732,
      "▁perjury": 7733,
      "▁picture": 7734,
      "▁plaints": 7735,
      "▁procure": 7736,
      "▁profits": 7737,
      "▁pursued": 7738,
      "▁raiment": 7739,
      "▁rancour": 7740,
      "▁rascals": 7741,
      "▁recover": 7742,
      "▁replied": 7743,
      "▁reproof": 7744,
      "▁rewards": 7745,
      "▁roundly": 7746,
      "▁scarlet": 7747,
      "▁scholar": 7748,
      "▁shelter": 7749,
      "▁showers": 7750,
      "▁smiling": 7751,
      "▁society": 7752,
      "▁solicit": 7753,
      "▁spiders": 7754,
      "▁suffice": 7755,
      "▁superfl": 7756,
      "▁suppose": 7757,
      "▁supreme": 7758,
      "▁tainted": 7759,
      "▁threats": 7760,
      "▁throats": 7761,
      "▁tonight": 7762,
      "▁tribune": 7763,
      "▁tribute": 7764,
      "▁undergo": 7765,
      "▁villany": 7766,
      "▁warning": 7767,
      "▁wayward": 7768,
      "▁weighty": 7769,
      "▁wenches": 7770,
      "▁western": 7771,
      "▁whistle": 7772,
      "▁wonders": 7773,
      "mediately": 7774,
      "perienced": 7775,
      "▁Antiates": 7776,
      "▁Consider": 7777,
      "▁Dispatch": 7778,
      "▁Doricles": 7779,
      "▁Evermore": 7780,
      "▁Florizel": 7781,
      "▁Hercules": 7782,
      "▁Lodowick": 7783,
      "▁Meantime": 7784,
      "▁Overdone": 7785,
      "▁Phaethon": 7786,
      "▁Thoughts": 7787,
      "▁Touching": 7788,
      "▁Welshmen": 7789,
      "▁achieved": 7790,
      "▁admitted": 7791,
      "▁affright": 7792,
      "▁ambition": 7793,
      "▁appeared": 7794,
      "▁bachelor": 7795,
      "▁backward": 7796,
      "▁bankrupt": 7797,
      "▁baseness": 7798,
      "▁bootless": 7799,
      "▁brawling": 7800,
      "▁breaking": 7801,
      "▁breathes": 7802,
      "▁breeding": 7803,
      "▁chastity": 7804,
      "▁choleric": 7805,
      "▁comforts": 7806,
      "▁confines": 7807,
      "▁consumed": 7808,
      "▁councils": 7809,
      "▁counsels": 7810,
      "▁delights": 7811,
      "▁discords": 7812,
      "▁disorder": 7813,
      "▁distingu": 7814,
      "▁division": 7815,
      "▁drunkard": 7816,
      "▁embraced": 7817,
      "▁entrails": 7818,
      "▁farthest": 7819,
      "▁festival": 7820,
      "▁fighting": 7821,
      "▁frighted": 7822,
      "▁fruitful": 7823,
      "▁function": 7824,
      "▁governor": 7825,
      "▁harmless": 7826,
      "▁husbands": 7827,
      "▁imperial": 7828,
      "▁indirect": 7829,
      "▁inferior": 7830,
      "▁injuries": 7831,
      "▁intended": 7832,
      "▁knightly": 7833,
      "▁ladyship": 7834,
      "▁mariners": 7835,
      "▁medicine": 7836,
      "▁merciful": 7837,
      "▁millions": 7838,
      "▁minstrel": 7839,
      "▁miseries": 7840,
      "▁mounting": 7841,
      "▁mourning": 7842,
      "▁needless": 7843,
      "▁nobleman": 7844,
      "▁peaceful": 7845,
      "▁publicly": 7846,
      "▁puissant": 7847,
      "▁receives": 7848,
      "▁regiment": 7849,
      "▁remedies": 7850,
      "▁required": 7851,
      "▁requires": 7852,
      "▁resolute": 7853,
      "▁restored": 7854,
      "▁returned": 7855,
      "▁scarcely": 7856,
      "▁scolding": 7857,
      "▁stirring": 7858,
      "▁stooping": 7859,
      "▁strongly": 7860,
      "▁strumpet": 7861,
      "▁sunshine": 7862,
      "▁tenderly": 7863,
      "▁terrible": 7864,
      "▁timeless": 7865,
      "▁trembles": 7866,
      "▁triumphs": 7867,
      "▁unlawful": 7868,
      "▁vineyard": 7869,
      "▁welcomes": 7870,
      "▁worthily": 7871,
      "▁Affection": 7872,
      "▁Cleomenes": 7873,
      "▁Elizabeth": 7874,
      "▁NATHANIEL": 7875,
      "▁Patrician": 7876,
      "▁amazement": 7877,
      "▁blessings": 7878,
      "▁caparison": 7879,
      "▁concluded": 7880,
      "▁confusion": 7881,
      "▁consorted": 7882,
      "▁counterpo": 7883,
      "▁cowardice": 7884,
      "▁creatures": 7885,
      "▁delivered": 7886,
      "▁disguised": 7887,
      "▁dissemble": 7888,
      "▁elsewhere": 7889,
      "▁extremest": 7890,
      "▁following": 7891,
      "▁greetings": 7892,
      "▁impatient": 7893,
      "▁importune": 7894,
      "▁injurious": 7895,
      "▁insolence": 7896,
      "▁insulting": 7897,
      "▁lightness": 7898,
      "▁merriment": 7899,
      "▁mistaking": 7900,
      "▁necessary": 7901,
      "▁notorious": 7902,
      "▁penitence": 7903,
      "▁physician": 7904,
      "▁poisonous": 7905,
      "▁possessed": 7906,
      "▁posterity": 7907,
      "▁precedent": 7908,
      "▁preserved": 7909,
      "▁prisoners": 7910,
      "▁reckoning": 7911,
      "▁repossess": 7912,
      "▁restraint": 7913,
      "▁solemnity": 7914,
      "▁testimony": 7915,
      "▁treachery": 7916,
      "▁troublous": 7917,
      "▁unfeigned": 7918,
      "▁utterance": 7919,
      "▁witnesses": 7920,
      "▁wrangling": 7921,
      "▁Apothecary": 7922,
      "▁Brakenbury": 7923,
      "▁advertised": 7924,
      "▁altogether": 7925,
      "▁assistance": 7926,
      "▁cheerfully": 7927,
      "▁commanding": 7928,
      "▁conditions": 7929,
      "▁difference": 7930,
      "▁discharged": 7931,
      "▁distressed": 7932,
      "▁expedition": 7933,
      "▁headstrong": 7934,
      "▁impatience": 7935,
      "▁impediment": 7936,
      "▁impression": 7937,
      "▁inconstant": 7938,
      "▁jealousies": 7939,
      "▁knighthood": 7940,
      "▁lieutenant": 7941,
      "▁peremptory": 7942,
      "▁persuasion": 7943,
      "▁pestilence": 7944,
      "▁pronounced": 7945,
      "▁repetition": 7946,
      "▁sisterhood": 7947,
      "▁underneath": 7948,
      "▁witchcraft": 7949,
      "▁Christopher": 7950,
      "▁acknowledge": 7951,
      "▁chamberlain": 7952,
      "▁comfortable": 7953,
      "▁composition": 7954,
      "▁controversy": 7955,
      "▁forgiveness": 7956,
      "▁grandfather": 7957,
      "▁inclination": 7958,
      "▁indifferent": 7959,
      "▁interchange": 7960,
      "▁nightingale": 7961,
      "▁prerogative": 7962,
      "▁territories": 7963,
      "▁transported": 7964,
      "▁apprehension": 7965,
      "▁chastisement": 7966,
      "▁schoolmaster": 7967,
      "▁circumstances": 7968,
      "▁understanding": 7969,
      "▁notwithstanding": 7970,
      "'!": 7971,
      "CI": 7972,
      "My": 7973,
      "Ty": 7974,
      "We": 7975,
      "av": 7976,
      "co": 7977,
      "oz": 7978,
      "sy": 7979,
      "te": 7980,
      "wh": 7981,
      "▁&": 7982,
      "'--": 7983,
      "ARL": 7984,
      "UNT": 7985,
      "alf": 7986,
      "alo": 7987,
      "ami": 7988,
      "aus": 7989,
      "bel": 7990,
      "bes": 7991,
      "can": 7992,
      "cho": 7993,
      "cts": 7994,
      "din": 7995,
      "dis": 7996,
      "dra": 7997,
      "dur": 7998,
      "ech": 7999,
      "ele": 8000,
      "erp": 8001,
      "erw": 8002,
      "fly": 8003,
      "gom": 8004,
      "hos": 8005,
      "hra": 8006,
      "ias": 8007,
      "iby": 8008,
      "ige": 8009,
      "iod": 8010,
      "isc": 8011,
      "las": 8012,
      "leh": 8013,
      "lex": 8014,
      "liv": 8015,
      "lla": 8016,
      "mak": 8017,
      "min": 8018,
      "nel": 8019,
      "net": 8020,
      "nit": 8021,
      "nut": 8022,
      "oln": 8023,
      "orc": 8024,
      "pol": 8025,
      "por": 8026,
      "qua": 8027,
      "reg": 8028,
      "ris": 8029,
      "sia": 8030,
      "ton": 8031,
      "umn": 8032,
      "usc": 8033,
      "uto": 8034,
      "vir": 8035,
      "▁BL": 8036,
      "▁Pe": 8037,
      "▁SA": 8038,
      "▁Ti": 8039,
      "▁Tr": 8040,
      "▁au": 8041,
      "▁cy": 8042,
      "▁eg": 8043,
      "▁el": 8044,
      "▁ew": 8045,
      "▁ib": 8046,
      "▁la": 8047,
      "▁na": 8048,
      "▁ny": 8049,
      "▁ox": 8050,
      "CISC": 8051,
      "Fore": 8052,
      "Good": 8053,
      "Hear": 8054,
      "Soul": 8055,
      "Tell": 8056,
      "acks": 8057,
      "agoz": 8058,
      "aith": 8059,
      "bu": 8060,
      "fix": 8061,
      "pse": 8062,
      "spo": 8063,
      "ubs": 8064,
      "alem": 8065,
      "alls": 8066,
      "alty": 8067,
      "ange": 8068,
      "anks": 8069,
      "apes": 8070,
      "arth": 8071,
      "ashy": 8072,
      "atin": 8073,
      "aved": 8074,
      "bast": 8075,
      "bery": 8076,
      "bled": 8077,
      "body": 8078,
      "bred": 8079,
      "cued": 8080,
      "dent": 8081,
      "door": 8082,
      "eria": 8083,
      "eyed": 8084,
      "fend": 8085,
      "ffic": 8086,
      "geal": 8087,
      "geon": 8088,
      "gher": 8089,
      "gone": 8090,
      "happ": 8091,
      "hear": 8092,
      "hers": 8093,
      "hild": 8094,
      "hoop": 8095,
      "hyme": 8096,
      "ican": 8097,
      "ilty": 8098,
      "inet": 8099,
      "isle": 8100,
      "itae": 8101,
      "itan": 8102,
      "keep": 8103,
      "lord": 8104,
      "lore": 8105,
      "lorn": 8106,
      "lous": 8107,
      "lves": 8108,
      "mary": 8109,
      "mast": 8110,
      "mind": 8111,
      "once": 8112,
      "oted": 8113,
      "pery": 8114,
      "phos": 8115,
      "pire": 8116,
      "ples": 8117,
      "pted": 8118,
      "pter": 8119,
      "qual": 8120,
      "reef": 8121,
      "rian": 8122,
      "ribe": 8123,
      "roop": 8124,
      "rung": 8125,
      "sick": 8126,
      "song": 8127,
      "▁": 8128,
      "e": 8129,
      "t": 8130,
      "o": 8131,
      "a": 8132,
      "h": 8133,
      "s": 8134,
      "r": 8135,
      "n": 8136,
      "i": 8137,
      "l": 8138,
      "d": 8139,
      "u": 8140,
      "m": 8141,
      "y": 8142,
      ",": 8143,
      "w": 8144,
      "f": 8145,
      "c": 8146,
      "g": 8147,
      "I": 8148,
      "b": 8149,
      "p": 8150,
      ":": 8151,
      ".": 8152,
      "A": 8153,
      "v": 8154,
      "k": 8155,
      "T": 8156,
      "'": 8157,
      "E": 8158,
      "O": 8159,
      "N": 8160,
      "R": 8161,
      "S": 8162,
      "L": 8163,
      "C": 8164,
      ";": 8165,
      "W": 8166,
      "U": 8167,
      "H": 8168,
      "M": 8169,
      "B": 8170,
      "?": 8171,
      "G": 8172,
      "!": 8173,
      "D": 8174,
      "-": 8175,
      "F": 8176,
      "Y": 8177,
      "P": 8178,
      "K": 8179,
      "V": 8180,
      "j": 8181,
      "q": 8182,
      "x": 8183,
      "z": 8184,
      "J": 8185,
      "Q": 8186,
      "Z": 8187,
      "X": 8188,
      "3": 8189,
      "&": 8190,
      "$": 8191
    },
    "merges": [
      [
        "▁",
        "t"
      ],
      [
        "h",
        "e"
      ],
      [
        "▁",
        "a"
      ],
      [
        "o",
        "u"
      ],
      [
        "▁",
        "s"
      ],
      [
        "▁",
        "m"
      ],
      [
        "▁",
        "w"
      ],
      [
        "i",
        "n"
      ],
      [
        "r",
        "e"
      ],
      [
        "h",
        "a"
      ],
      [
        "▁th",
        "e"
      ],
      [
        "▁t",
        "he"
      ],
      [
        "▁",
        "the"
      ],
      [
        "n",
        "d"
      ],
      [
        "▁",
        "b"
      ],
      [
        "i",
        "s"
      ],
      [
        "o",
        "r"
      ],
      [
        "▁",
        "f"
      ],
      [
        "▁",
        "I"
      ],
      [
        "e",
        "r"
      ],
      [
        "l",
        "l"
      ],
      [
        "i",
        "t"
      ],
      [
        "o",
        "n"
      ],
      [
        "▁",
        "d"
      ],
      [
        "▁",
        "c"
      ],
      [
        "▁",
        "n"
      ],
      [
        "▁",
        "l"
      ],
      [
        "▁",
        "y"
      ],
      [
        "e",
        "s"
      ],
      [
        "e",
        "n"
      ],
      [
        "▁t",
        "h"
      ],
      [
        "▁",
        "th"
      ],
      [
        "a",
        "r"
      ],
      [
        "▁",
        "h"
      ],
      [
        "▁",
        "o"
      ],
      [
        "▁t",
        "o"
      ],
      [
        "▁",
        "to"
      ],
      [
        "▁y",
        "ou"
      ],
      [
        "▁",
        "p"
      ],
      [
        "▁",
        "T"
      ],
      [
        "ha",
        "t"
      ],
      [
        "h",
        "at"
      ],
      [
        "▁",
        "A"
      ],
      [
        "▁h",
        "e"
      ],
      [
        "▁",
        "he"
      ],
      [
        "s",
        "t"
      ],
      [
        "v",
        "e"
      ],
      [
        "o",
        "t"
      ],
      [
        "▁an",
        "d"
      ],
      [
        "▁a",
        "nd"
      ],
      [
        "▁",
        "and"
      ],
      [
        "o",
        "w"
      ],
      [
        "in",
        "g"
      ],
      [
        "i",
        "ng"
      ],
      [
        "▁o",
        "f"
      ],
      [
        "▁",
        "of"
      ],
      [
        "a",
        "n"
      ],
      [
        "o",
        "m"
      ],
      [
        "▁",
        "g"
      ],
      [
        "a",
        "t"
      ],
      [
        "▁b",
        "e"
      ],
      [
        "▁",
        "be"
      ],
      [
        "▁",
        "W"
      ],
      [
        "s",
        "e"
      ],
      [
        "▁m",
        "y"
      ],
      [
        "▁i",
        "n"
      ],
      [
        "▁",
        "in"
      ],
      [
        "▁h",
        "a"
      ],
      [
        "▁",
        "ha"
      ],
      [
        "c",
        "e"
      ],
      [
        "l",
        "e"
      ],
      [
        "a",
        "y"
      ],
      [
        "l",
        "d"
      ],
      [
        "i",
        "r"
      ],
      [
        "e",
        "t"
      ],
      [
        "e",
        "d"
      ],
      [
        "u",
        "t"
      ],
      [
        "▁",
        "B"
      ],
      [
        "▁m",
        "e"
      ],
      [
        "▁",
        "me"
      ],
      [
        "i",
        "m"
      ],
      [
        "▁",
        "S"
      ],
      [
        "it",
        "h"
      ],
      [
        "i",
        "th"
      ],
      [
        "▁no",
        "t"
      ],
      [
        "▁n",
        "ot"
      ],
      [
        "▁",
        "not"
      ],
      [
        "▁",
        "H"
      ],
      [
        "c",
        "h"
      ],
      [
        "▁th",
        "at"
      ],
      [
        "▁t",
        "hat"
      ],
      [
        "▁",
        "that"
      ],
      [
        "▁i",
        "s"
      ],
      [
        "▁",
        "is"
      ],
      [
        "▁",
        "M"
      ],
      [
        "g",
        "h"
      ],
      [
        "▁An",
        "d"
      ],
      [
        "▁A",
        "nd"
      ],
      [
        "▁fo",
        "r"
      ],
      [
        "▁f",
        "or"
      ],
      [
        "▁",
        "for"
      ],
      [
        "▁",
        "u"
      ],
      [
        "k",
        "e"
      ],
      [
        "▁",
        "C"
      ],
      [
        "▁w",
        "e"
      ],
      [
        "▁",
        "we"
      ],
      [
        "ou",
        "r"
      ],
      [
        "o",
        "ur"
      ],
      [
        "o",
        "o"
      ],
      [
        "il",
        "l"
      ],
      [
        "i",
        "ll"
      ],
      [
        "▁",
        "e"
      ],
      [
        "▁wit",
        "h"
      ],
      [
        "▁w",
        "ith"
      ],
      [
        "▁",
        "with"
      ],
      [
        "he",
        "r"
      ],
      [
        "h",
        "er"
      ],
      [
        "▁i",
        "t"
      ],
      [
        "▁",
        "it"
      ],
      [
        "en",
        "t"
      ],
      [
        "e",
        "nt"
      ],
      [
        "▁you",
        "r"
      ],
      [
        "▁y",
        "our"
      ],
      [
        "▁",
        "your"
      ],
      [
        "a",
        "d"
      ],
      [
        "r",
        "i"
      ],
      [
        "▁",
        "O"
      ],
      [
        "▁th",
        "ou"
      ],
      [
        "▁s",
        "t"
      ],
      [
        "▁",
        "st"
      ],
      [
        "▁",
        "k"
      ],
      [
        "▁",
        "L"
      ],
      [
        "om",
        "e"
      ],
      [
        "o",
        "me"
      ],
      [
        "▁h",
        "is"
      ],
      [
        "▁",
        "F"
      ],
      [
        "▁",
        "G"
      ],
      [
        "gh",
        "t"
      ],
      [
        "E",
        "N"
      ],
      [
        "or",
        "d"
      ],
      [
        "▁r",
        "e"
      ],
      [
        "▁",
        "re"
      ],
      [
        "i",
        "d"
      ],
      [
        "r",
        "a"
      ],
      [
        "▁Th",
        "e"
      ],
      [
        "▁T",
        "he"
      ],
      [
        "▁",
        "The"
      ],
      [
        "▁ha",
        "ve"
      ],
      [
        "▁h",
        "ave"
      ],
      [
        "▁h",
        "im"
      ],
      [
        "I",
        "N"
      ],
      [
        "l",
        "y"
      ],
      [
        "▁l",
        "i"
      ],
      [
        "▁",
        "li"
      ],
      [
        "a",
        "s"
      ],
      [
        "▁",
        "P"
      ],
      [
        "▁th",
        "is"
      ],
      [
        "u",
        "r"
      ],
      [
        "I",
        "O"
      ],
      [
        "a",
        "l"
      ],
      [
        "▁s",
        "o"
      ],
      [
        "▁",
        "so"
      ],
      [
        "▁a",
        "s"
      ],
      [
        "▁",
        "as"
      ],
      [
        "▁d",
        "e"
      ],
      [
        "▁",
        "de"
      ],
      [
        "▁o",
        "n"
      ],
      [
        "▁",
        "on"
      ],
      [
        "▁",
        "R"
      ],
      [
        "or",
        "e"
      ],
      [
        "o",
        "re"
      ],
      [
        "r",
        "o"
      ],
      [
        "▁",
        "N"
      ],
      [
        "h",
        "i"
      ],
      [
        "oul",
        "d"
      ],
      [
        "ou",
        "ld"
      ],
      [
        "oo",
        "d"
      ],
      [
        "o",
        "od"
      ],
      [
        "A",
        "R"
      ],
      [
        "c",
        "k"
      ],
      [
        "a",
        "in"
      ],
      [
        "ve",
        "r"
      ],
      [
        "v",
        "er"
      ],
      [
        "▁",
        "Y"
      ],
      [
        "es",
        "t"
      ],
      [
        "e",
        "st"
      ],
      [
        "▁sh",
        "a"
      ],
      [
        "▁s",
        "ha"
      ],
      [
        "▁",
        "sha"
      ],
      [
        "▁th",
        "y"
      ],
      [
        "▁t",
        "hy"
      ],
      [
        "es",
        "s"
      ],
      [
        "e",
        "ss"
      ],
      [
        "▁w",
        "ill"
      ],
      [
        "▁",
        "will"
      ],
      [
        "▁d",
        "o"
      ],
      [
        "▁",
        "do"
      ],
      [
        "e",
        "a"
      ],
      [
        "▁n",
        "o"
      ],
      [
        "▁",
        "no"
      ],
      [
        "a",
        "m"
      ],
      [
        "▁",
        "E"
      ],
      [
        "▁bu",
        "t"
      ],
      [
        "▁b",
        "ut"
      ],
      [
        "▁",
        "but"
      ],
      [
        "▁",
        "D"
      ],
      [
        "u",
        "s"
      ],
      [
        "▁s",
        "e"
      ],
      [
        "▁",
        "se"
      ],
      [
        "U",
        "S"
      ],
      [
        "i",
        "f"
      ],
      [
        "▁",
        "'"
      ],
      [
        "g",
        "e"
      ],
      [
        "▁al",
        "l"
      ],
      [
        "▁a",
        "ll"
      ],
      [
        "▁",
        "all"
      ],
      [
        "an",
        "d"
      ],
      [
        "a",
        "nd"
      ],
      [
        "▁T",
        "h"
      ],
      [
        "▁",
        "Th"
      ],
      [
        "▁s",
        "u"
      ],
      [
        "ak",
        "e"
      ],
      [
        "a",
        "ke"
      ],
      [
        "▁T",
        "o"
      ],
      [
        "▁he",
        "r"
      ],
      [
        "▁h",
        "er"
      ],
      [
        "▁",
        "her"
      ],
      [
        "r",
        "u"
      ],
      [
        "io",
        "n"
      ],
      [
        "i",
        "on"
      ],
      [
        "▁a",
        "n"
      ],
      [
        "▁",
        "an"
      ],
      [
        "▁",
        "K"
      ],
      [
        "▁l",
        "o"
      ],
      [
        "▁",
        "lo"
      ],
      [
        "ar",
        "d"
      ],
      [
        "te",
        "r"
      ],
      [
        "t",
        "er"
      ],
      [
        "ha",
        "n"
      ],
      [
        "h",
        "an"
      ],
      [
        "▁s",
        "p"
      ],
      [
        "▁",
        "sp"
      ],
      [
        "el",
        "l"
      ],
      [
        "e",
        "ll"
      ],
      [
        "ea",
        "r"
      ],
      [
        "e",
        "ar"
      ],
      [
        "▁the",
        "e"
      ],
      [
        "▁th",
        "ee"
      ],
      [
        "▁f",
        "a"
      ],
      [
        "▁sha",
        "ll"
      ],
      [
        "▁sh",
        "all"
      ],
      [
        "▁s",
        "hall"
      ],
      [
        "▁",
        "shall"
      ],
      [
        "▁o",
        "ur"
      ],
      [
        "▁",
        "our"
      ],
      [
        "▁b",
        "y"
      ],
      [
        "▁",
        "by"
      ],
      [
        "t",
        "h"
      ],
      [
        "U",
        "C"
      ],
      [
        "▁ar",
        "e"
      ],
      [
        "▁a",
        "re"
      ],
      [
        "▁",
        "are"
      ],
      [
        "i",
        "l"
      ],
      [
        "IN",
        "G"
      ],
      [
        "▁n",
        "e"
      ],
      [
        "▁",
        "ne"
      ],
      [
        "▁k",
        "n"
      ],
      [
        "ro",
        "m"
      ],
      [
        "r",
        "om"
      ],
      [
        "h",
        "o"
      ],
      [
        "▁",
        "v"
      ],
      [
        "▁Th",
        "at"
      ],
      [
        "▁T",
        "hat"
      ],
      [
        "E",
        "R"
      ],
      [
        "O",
        "R"
      ],
      [
        "as",
        "t"
      ],
      [
        "a",
        "st"
      ],
      [
        "c",
        "t"
      ],
      [
        "ou",
        "s"
      ],
      [
        "o",
        "us"
      ],
      [
        "▁wh",
        "at"
      ],
      [
        "▁w",
        "hat"
      ],
      [
        "▁",
        "what"
      ],
      [
        "▁s",
        "h"
      ],
      [
        "▁",
        "sh"
      ],
      [
        "igh",
        "t"
      ],
      [
        "i",
        "ght"
      ],
      [
        "u",
        "l"
      ],
      [
        "E",
        "T"
      ],
      [
        "an",
        "t"
      ],
      [
        "a",
        "nt"
      ],
      [
        "▁u",
        "p"
      ],
      [
        "▁",
        "up"
      ],
      [
        "se",
        "l"
      ],
      [
        "s",
        "el"
      ],
      [
        "▁go",
        "od"
      ],
      [
        "▁g",
        "ood"
      ],
      [
        "▁",
        "good"
      ],
      [
        "q",
        "u"
      ],
      [
        "▁B",
        "ut"
      ],
      [
        "ar",
        "t"
      ],
      [
        "a",
        "rt"
      ],
      [
        "ro",
        "w"
      ],
      [
        "r",
        "ow"
      ],
      [
        "at",
        "h"
      ],
      [
        "a",
        "th"
      ],
      [
        "in",
        "e"
      ],
      [
        "i",
        "ne"
      ],
      [
        "▁co",
        "m"
      ],
      [
        "▁c",
        "om"
      ],
      [
        "▁",
        "com"
      ],
      [
        "▁m",
        "u"
      ],
      [
        "▁l",
        "ord"
      ],
      [
        "▁",
        "lord"
      ],
      [
        "hi",
        "ch"
      ],
      [
        "n",
        "t"
      ],
      [
        "▁p",
        "r"
      ],
      [
        "▁",
        "pr"
      ],
      [
        "▁ma",
        "n"
      ],
      [
        "▁m",
        "an"
      ],
      [
        "▁",
        "man"
      ],
      [
        "▁a",
        "t"
      ],
      [
        "▁",
        "at"
      ],
      [
        "▁",
        "V"
      ],
      [
        "on",
        "e"
      ],
      [
        "o",
        "ne"
      ],
      [
        "▁wh",
        "e"
      ],
      [
        "▁w",
        "he"
      ],
      [
        "▁",
        "whe"
      ],
      [
        "▁co",
        "n"
      ],
      [
        "▁c",
        "on"
      ],
      [
        "▁",
        "con"
      ],
      [
        "▁Wh",
        "at"
      ],
      [
        "▁W",
        "hat"
      ],
      [
        "▁",
        "What"
      ],
      [
        "▁a",
        "m"
      ],
      [
        "▁",
        "am"
      ],
      [
        "en",
        "d"
      ],
      [
        "e",
        "nd"
      ],
      [
        "i",
        "c"
      ],
      [
        "E",
        "S"
      ],
      [
        "bl",
        "e"
      ],
      [
        "b",
        "le"
      ],
      [
        "r",
        "y"
      ],
      [
        "on",
        "g"
      ],
      [
        "o",
        "ng"
      ],
      [
        "▁fro",
        "m"
      ],
      [
        "▁fr",
        "om"
      ],
      [
        "▁f",
        "rom"
      ],
      [
        "i",
        "e"
      ],
      [
        "▁sh",
        "e"
      ],
      [
        "▁s",
        "he"
      ],
      [
        "▁",
        "she"
      ],
      [
        "▁b",
        "l"
      ],
      [
        "▁",
        "bl"
      ],
      [
        "iv",
        "e"
      ],
      [
        "i",
        "ve"
      ],
      [
        "ve",
        "n"
      ],
      [
        "v",
        "en"
      ],
      [
        "▁g",
        "o"
      ],
      [
        "▁",
        "go"
      ],
      [
        "▁Fo",
        "r"
      ],
      [
        "▁F",
        "or"
      ],
      [
        "▁mo",
        "re"
      ],
      [
        "▁m",
        "ore"
      ],
      [
        "▁",
        "more"
      ],
      [
        "▁the",
        "m"
      ],
      [
        "▁th",
        "em"
      ],
      [
        "▁t",
        "hem"
      ],
      [
        "e",
        "m"
      ],
      [
        "▁wa",
        "s"
      ],
      [
        "▁w",
        "as"
      ],
      [
        "I",
        "C"
      ],
      [
        "ou",
        "t"
      ],
      [
        "o",
        "ut"
      ],
      [
        "a",
        "u"
      ],
      [
        "▁s",
        "ir"
      ],
      [
        "othe",
        "r"
      ],
      [
        "oth",
        "er"
      ],
      [
        "ot",
        "her"
      ],
      [
        "o",
        "ther"
      ],
      [
        "ar",
        "e"
      ],
      [
        "a",
        "re"
      ],
      [
        "ot",
        "h"
      ],
      [
        "o",
        "th"
      ],
      [
        "o",
        "l"
      ],
      [
        "▁i",
        "f"
      ],
      [
        "▁",
        "if"
      ],
      [
        "▁H",
        "e"
      ],
      [
        "▁",
        "He"
      ],
      [
        "▁no",
        "w"
      ],
      [
        "▁n",
        "ow"
      ],
      [
        "▁",
        "now"
      ],
      [
        "▁ha",
        "t"
      ],
      [
        "▁h",
        "at"
      ],
      [
        "▁",
        "hat"
      ],
      [
        "▁the",
        "re"
      ],
      [
        "▁th",
        "ere"
      ],
      [
        "▁t",
        "here"
      ],
      [
        "▁",
        "there"
      ],
      [
        "▁w",
        "ould"
      ],
      [
        "A",
        "N"
      ],
      [
        "os",
        "t"
      ],
      [
        "o",
        "st"
      ],
      [
        "▁kn",
        "ow"
      ],
      [
        "▁k",
        "now"
      ],
      [
        "▁ca",
        "n"
      ],
      [
        "▁c",
        "an"
      ],
      [
        "▁",
        "can"
      ],
      [
        "L",
        "O"
      ],
      [
        "in",
        "d"
      ],
      [
        "i",
        "nd"
      ],
      [
        "er",
        "s"
      ],
      [
        "e",
        "rs"
      ],
      [
        "I",
        "US"
      ],
      [
        "e",
        "p"
      ],
      [
        "sel",
        "f"
      ],
      [
        "se",
        "lf"
      ],
      [
        "AR",
        "D"
      ],
      [
        "▁sa",
        "y"
      ],
      [
        "▁s",
        "ay"
      ],
      [
        "▁K",
        "ING"
      ],
      [
        "athe",
        "r"
      ],
      [
        "ath",
        "er"
      ],
      [
        "at",
        "her"
      ],
      [
        "a",
        "ther"
      ],
      [
        "on",
        "d"
      ],
      [
        "o",
        "nd"
      ],
      [
        "at",
        "e"
      ],
      [
        "a",
        "te"
      ],
      [
        "re",
        "s"
      ],
      [
        "r",
        "es"
      ],
      [
        "f",
        "e"
      ],
      [
        "▁s",
        "w"
      ],
      [
        "▁",
        "sw"
      ],
      [
        "▁her",
        "e"
      ],
      [
        "▁he",
        "re"
      ],
      [
        "▁h",
        "ere"
      ],
      [
        "▁",
        "here"
      ],
      [
        "▁lo",
        "ve"
      ],
      [
        "▁l",
        "ove"
      ],
      [
        "▁",
        "love"
      ],
      [
        "▁the",
        "ir"
      ],
      [
        "▁M",
        "y"
      ],
      [
        "▁",
        "My"
      ],
      [
        "▁o",
        "r"
      ],
      [
        "▁",
        "or"
      ],
      [
        "▁th",
        "an"
      ],
      [
        "▁t",
        "han"
      ],
      [
        "▁b",
        "r"
      ],
      [
        "▁",
        "br"
      ],
      [
        "p",
        "p"
      ],
      [
        "-",
        "-"
      ],
      [
        "▁u",
        "s"
      ],
      [
        "▁",
        "us"
      ],
      [
        "▁kin",
        "g"
      ],
      [
        "▁k",
        "ing"
      ],
      [
        "▁",
        "king"
      ],
      [
        "▁the",
        "y"
      ],
      [
        "▁th",
        "ey"
      ],
      [
        "▁the",
        "n"
      ],
      [
        "▁th",
        "en"
      ],
      [
        "▁t",
        "hen"
      ],
      [
        "▁",
        "then"
      ],
      [
        "al",
        "l"
      ],
      [
        "a",
        "ll"
      ],
      [
        "▁a",
        "r"
      ],
      [
        "▁",
        "ar"
      ],
      [
        "o",
        "d"
      ],
      [
        "▁le",
        "t"
      ],
      [
        "▁l",
        "et"
      ],
      [
        "▁",
        "let"
      ],
      [
        "▁u",
        "n"
      ],
      [
        "▁",
        "un"
      ],
      [
        "i",
        "g"
      ],
      [
        "▁wo",
        "r"
      ],
      [
        "▁w",
        "or"
      ],
      [
        "ur",
        "e"
      ],
      [
        "u",
        "re"
      ],
      [
        "in",
        "k"
      ],
      [
        "i",
        "nk"
      ],
      [
        "▁ma",
        "y"
      ],
      [
        "▁m",
        "ay"
      ],
      [
        "h",
        "y"
      ],
      [
        "am",
        "e"
      ],
      [
        "a",
        "me"
      ],
      [
        "▁com",
        "e"
      ],
      [
        "▁co",
        "me"
      ],
      [
        "▁c",
        "ome"
      ],
      [
        "▁",
        "come"
      ],
      [
        "for",
        "e"
      ],
      [
        "f",
        "ore"
      ],
      [
        "or",
        "t"
      ],
      [
        "o",
        "rt"
      ],
      [
        "▁A",
        "s"
      ],
      [
        "▁",
        "qu"
      ],
      [
        "oo",
        "k"
      ],
      [
        "▁wel",
        "l"
      ],
      [
        "▁we",
        "ll"
      ],
      [
        "▁w",
        "ell"
      ],
      [
        "▁",
        "well"
      ],
      [
        "e",
        "l"
      ],
      [
        "is",
        "h"
      ],
      [
        "i",
        "sh"
      ],
      [
        "L",
        "I"
      ],
      [
        "▁Wh",
        "e"
      ],
      [
        "▁W",
[...]
